{
  "version": "1.0",
  "truncation": null,
  "padding": null,
  "added_tokens": [
    {
      "id": 0,
      "content": "<|endoftext|>",
      "single_word": false,
      "lstrip": false,
      "rstrip": false,
      "normalized": false,
      "special": true
    },
    {
      "id": 1,
      "content": "<|pad|>",
      "single_word": false,
      "lstrip": false,
      "rstrip": false,
      "normalized": false,
      "special": true
    },
    {
      "id": 2,
      "content": "<|unk|>",
      "single_word": false,
      "lstrip": false,
      "rstrip": false,
      "normalized": false,
      "special": true
    }
  ],
  "normalizer": null,
  "pre_tokenizer": {
    "type": "ByteLevel",
    "add_prefix_space": false,
    "trim_offsets": true,
    "use_regex": true
  },
  "post_processor": null,
  "decoder": null,
  "model": {
    "type": "BPE",
    "dropout": null,
    "unk_token": "<|unk|>",
    "continuing_subword_prefix": null,
    "end_of_word_suffix": null,
    "fuse_unk": false,
    "byte_fallback": false,
    "ignore_merges": false,
    "vocab": {
      "<|endoftext|>": 0,
      "<|pad|>": 1,
      "<|unk|>": 2,
      "!": 3,
      "\"": 4,
      "#": 5,
      "$": 6,
      "%": 7,
      "&": 8,
      "'": 9,
      "(": 10,
      ")": 11,
      "*": 12,
      "+": 13,
      ",": 14,
      "-": 15,
      ".": 16,
      "/": 17,
      "0": 18,
      "1": 19,
      "2": 20,
      "3": 21,
      "4": 22,
      "5": 23,
      "6": 24,
      "7": 25,
      "8": 26,
      "9": 27,
      ":": 28,
      ";": 29,
      "<": 30,
      "=": 31,
      ">": 32,
      "?": 33,
      "@": 34,
      "A": 35,
      "B": 36,
      "C": 37,
      "D": 38,
      "E": 39,
      "F": 40,
      "G": 41,
      "H": 42,
      "I": 43,
      "J": 44,
      "K": 45,
      "L": 46,
      "M": 47,
      "N": 48,
      "O": 49,
      "P": 50,
      "Q": 51,
      "R": 52,
      "S": 53,
      "T": 54,
      "U": 55,
      "V": 56,
      "W": 57,
      "X": 58,
      "Y": 59,
      "Z": 60,
      "[": 61,
      "\\": 62,
      "]": 63,
      "^": 64,
      "_": 65,
      "`": 66,
      "a": 67,
      "b": 68,
      "c": 69,
      "d": 70,
      "e": 71,
      "f": 72,
      "g": 73,
      "h": 74,
      "i": 75,
      "j": 76,
      "k": 77,
      "l": 78,
      "m": 79,
      "n": 80,
      "o": 81,
      "p": 82,
      "q": 83,
      "r": 84,
      "s": 85,
      "t": 86,
      "u": 87,
      "v": 88,
      "w": 89,
      "x": 90,
      "y": 91,
      "z": 92,
      "{": 93,
      "|": 94,
      "}": 95,
      "~": 96,
      "¡": 97,
      "¢": 98,
      "£": 99,
      "¤": 100,
      "¥": 101,
      "¦": 102,
      "§": 103,
      "¨": 104,
      "©": 105,
      "ª": 106,
      "«": 107,
      "¬": 108,
      "®": 109,
      "¯": 110,
      "°": 111,
      "±": 112,
      "²": 113,
      "³": 114,
      "´": 115,
      "µ": 116,
      "¶": 117,
      "·": 118,
      "¸": 119,
      "¹": 120,
      "º": 121,
      "»": 122,
      "¼": 123,
      "½": 124,
      "¾": 125,
      "¿": 126,
      "Â": 127,
      "Ã": 128,
      "Ä": 129,
      "Å": 130,
      "Æ": 131,
      "Ç": 132,
      "È": 133,
      "É": 134,
      "Ê": 135,
      "Ë": 136,
      "Ì": 137,
      "Í": 138,
      "Î": 139,
      "Ï": 140,
      "Ð": 141,
      "Ñ": 142,
      "Ò": 143,
      "Ó": 144,
      "Ô": 145,
      "Õ": 146,
      "Ö": 147,
      "×": 148,
      "Ø": 149,
      "Ù": 150,
      "Ú": 151,
      "Û": 152,
      "Ü": 153,
      "Ý": 154,
      "Þ": 155,
      "ß": 156,
      "à": 157,
      "á": 158,
      "â": 159,
      "ã": 160,
      "ä": 161,
      "å": 162,
      "æ": 163,
      "ç": 164,
      "è": 165,
      "é": 166,
      "ê": 167,
      "ë": 168,
      "ì": 169,
      "í": 170,
      "î": 171,
      "ï": 172,
      "ð": 173,
      "ĉ": 174,
      "Ġ": 175,
      "Ģ": 176,
      "ģ": 177,
      "Ĥ": 178,
      "ĥ": 179,
      "Ħ": 180,
      "ħ": 181,
      "Ĩ": 182,
      "ĩ": 183,
      "Ī": 184,
      "ī": 185,
      "Ĭ": 186,
      "ĭ": 187,
      "Į": 188,
      "į": 189,
      "İ": 190,
      "ı": 191,
      "Ĳ": 192,
      "ĳ": 193,
      "Ĵ": 194,
      "ĵ": 195,
      "Ķ": 196,
      "ķ": 197,
      "ĸ": 198,
      "Ĺ": 199,
      "ĺ": 200,
      "Ļ": 201,
      "ļ": 202,
      "Ľ": 203,
      "ľ": 204,
      "Ŀ": 205,
      "ŀ": 206,
      "Ł": 207,
      "ł": 208,
      "Ń": 209,
      "Ġt": 210,
      "he": 211,
      "in": 212,
      "Ġa": 213,
      "er": 214,
      "on": 215,
      "or": 216,
      "Ġthe": 217,
      "at": 218,
      "es": 219,
      "an": 220,
      "en": 221,
      "ed": 222,
      "is": 223,
      "Ġo": 224,
      "al": 225,
      "ar": 226,
      "Ġs": 227,
      "it": 228,
      "Ġw": 229,
      "re": 230,
      "Ġof": 231,
      "nd": 232,
      "Ġc": 233,
      "Ġin": 234,
      "Ġf": 235,
      "ic": 236,
      "Ġb": 237,
      "Ġp": 238,
      "ion": 239,
      "ing": 240,
      "ĠC": 241,
      "as": 242,
      "Ġand": 243,
      "==": 244,
      "ro": 245,
      "le": 246,
      "ĠS": 247,
      "Ġ*": 248,
      "Ġ|": 249,
      "Ġm": 250,
      "Ġd": 251,
      "ĠT": 252,
      "Ġto": 253,
      "ĠA": 254,
      "ent": 255,
      "ou": 256,
      "il": 257,
      "Ġ1": 258,
      "Ġ(": 259,
      "Ġh": 260,
      "am": 261,
      "ĠM": 262,
      "om": 263,
      "el": 264,
      "ol": 265,
      "st": 266,
      "ct": 267,
      "ĠR": 268,
      "ur": 269,
      "ĠB": 270,
      "Ġ==": 271,
      "Ġl": 272,
      "ĠP": 273,
      "ad": 274,
      "ate": 275,
      "et": 276,
      "ation": 277,
      "ĠI": 278,
      "ch": 279,
      "id": 280,
      "iv": 281,
      "Ġre": 282,
      "Ġn": 283,
      "ig": 284,
      "ot": 285,
      "20": 286,
      "ĠH": 287,
      "ir": 288,
      "us": 289,
      "im": 290,
      "ce": 291,
      "Ġe": 292,
      "ĠThe": 293,
      "Ġth": 294,
      "ers": 295,
      "ĠD": 296,
      "ory": 297,
      "ly": 298,
      "ĠL": 299,
      "ist": 300,
      "Ġfor": 301,
      "ra": 302,
      "ow": 303,
      "ĠF": 304,
      "ut": 305,
      "Ġis": 306,
      "Ġg": 307,
      "ĠG": 308,
      "Ġon": 309,
      "âĢ": 310,
      "Ġwas": 311,
      "ĠN": 312,
      "em": 313,
      "ter": 314,
      "Ġ19": 315,
      "ay": 316,
      "ĠW": 317,
      "Ġas": 318,
      "ul": 319,
      "un": 320,
      "ĠE": 321,
      "ateg": 322,
      "ategory": 323,
      "Ġ20": 324,
      "th": 325,
      "ith": 326,
      "and": 327,
      "her": 328,
      "Ġbe": 329,
      "ĠCategory": 330,
      "Ġst": 331,
      "Ġ=": 332,
      "ag": 333,
      "um": 334,
      "ĠJ": 335,
      "Ġby": 336,
      "os": 337,
      "Ġal": 338,
      "Ġr": 339,
      "Ġwith": 340,
      "est": 341,
      "âĢĵ": 342,
      "ver": 343,
      "op": 344,
      "ĠO": 345,
      "ac": 346,
      "rom": 347,
      "Ġcon": 348,
      "ri": 349,
      "oc": 350,
      "'s": 351,
      "ess": 352,
      "od": 353,
      "Ġan": 354,
      "ab": 355,
      "Ġwh": 356,
      "ian": 357,
      "ĠK": 358,
      "Ġat": 359,
      "Ġv": 360,
      "ity": 361,
      "Ġde": 362,
      "Ġthat": 363,
      "ore": 364,
      "ies": 365,
      "if": 366,
      "Ġ\"": 367,
      "Ġpro": 368,
      "ia": 369,
      "up": 370,
      "ĠU": 371,
      "Ġcom": 372,
      "Ġfrom": 373,
      "ort": 374,
      "av": 375,
      "ĠIn": 376,
      "ain": 377,
      "ub": 378,
      "art": 379,
      "ap": 380,
      "ud": 381,
      "ew": 382,
      "Ġhe": 383,
      "Ġor": 384,
      "ill": 385,
      "ĠSt": 386,
      "19": 387,
      "ec": 388,
      "ber": 389,
      "ard": 390,
      "all": 391,
      "igh": 392,
      "ment": 393,
      "ak": 394,
      "Ġit": 395,
      "ear": 396,
      "se": 397,
      "ip": 398,
      "qu": 399,
      "end": 400,
      "og": 401,
      "ant": 402,
      "ov": 403,
      "ary": 404,
      "ial": 405,
      "ich": 406,
      "ish": 407,
      "fer": 408,
      "ive": 409,
      "ated": 410,
      "ld": 411,
      "Ġare": 412,
      "Ġex": 413,
      "ĠCh": 414,
      "ĠV": 415,
      "ect": 416,
      "our": 417,
      "Ġ200": 418,
      "ge": 419,
      "ine": 420,
      "oun": 421,
      "Ġch": 422,
      "),": 423,
      "Ġ2": 424,
      "ug": 425,
      "ong": 426,
      "Ġhis": 427,
      "ep": 428,
      "ical": 429,
      "Ġy": 430,
      "ast": 431,
      "mer": 432,
      "ust": 433,
      "ran": 434,
      "ĠâĢĵ": 435,
      "ks": 436,
      "und": 437,
      "ord": 438,
      "ell": 439,
      "Ġ===": 440,
      "sc": 441,
      "ĠRD": 442,
      "Ġpl": 443,
      "enc": 444,
      "uc": 445,
      "ame": 446,
      "ions": 447,
      "te": 448,
      "so": 449,
      "ight": 450,
      "age": 451,
      "Ġle": 452,
      "cl": 453,
      "00": 454,
      "ost": 455,
      "ik": 456,
      "ign": 457,
      "ere": 458,
      "Ġsp": 459,
      "Ġcomp": 460,
      "Ġse": 461,
      "Ġk": 462,
      "ĠUn": 463,
      "tern": 464,
      "ue": 465,
      "ther": 466,
      "ie": 467,
      "ure": 468,
      "ry": 469,
      "rit": 470,
      "Ġalso": 471,
      "ff": 472,
      "iz": 473,
      "ations": 474,
      "Ġwhich": 475,
      "Ġwere": 476,
      "pp": 477,
      "Ġsh": 478,
      "ric": 479,
      "ass": 480,
      "Ġar": 481,
      "ts": 482,
      "res": 483,
      "man": 484,
      "ous": 485,
      "}}": 486,
      "Ġnot": 487,
      "sh": 488,
      "ire": 489,
      "per": 490,
      "ang": 491,
      "ence": 492,
      "Ġte": 493,
      "Ġus": 494,
      "ĠHe": 495,
      "Ġun": 496,
      "Ġ3": 497,
      "port": 498,
      "ational": 499,
      "ĠTh": 500,
      "score": 501,
      "ib": 502,
      "ork": 503,
      "Ġ||": 504,
      "ide": 505,
      "erv": 506,
      "ok": 507,
      "Ġ-": 508,
      "hed": 509,
      "ave": 510,
      "ount": 511,
      "ition": 512,
      "orn": 513,
      "Ġres": 514,
      "ction": 515,
      "land": 516,
      "ĠY": 517,
      "ack": 518,
      "ph": 519,
      "irst": 520,
      "ult": 521,
      "pl": 522,
      "ond": 523,
      "ĠRe": 524,
      "ice": 525,
      "Ġcl": 526,
      "Ġ201": 527,
      "Ġhas": 528,
      "ences": 529,
      "ates": 530,
      "ome": 531,
      "own": 532,
      "Ġcont": 533,
      "ĠAl": 534,
      "Ġad": 535,
      "Ġint": 536,
      "ee": 537,
      "Ġwhe": 538,
      "bs": 539,
      "Ġ18": 540,
      "ubl": 541,
      "ey": 542,
      "ater": 543,
      "ens": 544,
      "ath": 545,
      "ĠIt": 546,
      "pt": 547,
      "Ġro": 548,
      "ican": 549,
      "ach": 550,
      "Ġtheir": 551,
      ").": 552,
      "ite": 553,
      "Ġ199": 554,
      "act": 555,
      "ace": 556,
      "ile": 557,
      "ound": 558,
      "Ġpart": 559,
      "ime": 560,
      "Ġac": 561,
      "ru": 562,
      "ĠAr": 563,
      "for": 564,
      "ited": 565,
      "ark": 566,
      "ual": 567,
      "aw": 568,
      "over": 569,
      "Ġits": 570,
      "Ġhad": 571,
      "ents": 572,
      "clud": 573,
      "Ġfirst": 574,
      "ferences": 575,
      "ree": 576,
      "fter": 577,
      "Ġ#": 578,
      "ivers": 579,
      "===": 580,
      "amp": 581,
      "ress": 582,
      "ng": 583,
      "Ġj": 584,
      "Ġwho": 585,
      "Ġapp": 586,
      "low": 587,
      "out": 588,
      "wo": 589,
      "iss": 590,
      "ugh": 591,
      "Ġ}}": 592,
      "Ġhave": 593,
      "18": 594,
      "les": 595,
      "Ġ4": 596,
      "Ġbut": 597,
      "Ġinclud": 598,
      "ool": 599,
      "ors": 600,
      "Ġper": 601,
      "inal": 602,
      "Ġim": 603,
      "ance": 604,
      "Ġman": 605,
      "Ġab": 606,
      "ould": 607,
      "ild": 608,
      "old": 609,
      "vel": 610,
      "merican": 611,
      "Ġthis": 612,
      "Ġone": 613,
      "Ġrec": 614,
      "ob": 615,
      "Ġdis": 616,
      "ĠNew": 617,
      "pe": 618,
      "Ġsc": 619,
      "ĠCom": 620,
      "ind": 621,
      "ĠMar": 622,
      "Ġ**": 623,
      "io": 624,
      "able": 625,
      "Ġher": 626,
      "uch": 627,
      "Ġdes": 628,
      "oy": 629,
      "Ġ202": 630,
      "ss": 631,
      "Ġother": 632,
      "ase": 633,
      "uring": 634,
      "are": 635,
      "ons": 636,
      "ased": 637,
      "we": 638,
      "ah": 639,
      "lect": 640,
      "Ġen": 641,
      "Ġcomm": 642,
      "ade": 643,
      "Ġyear": 644,
      "ied": 645,
      "Ġplay": 646,
      "als": 647,
      "ely": 648,
      "olog": 649,
      "ember": 650,
      "gr": 651,
      "Ġag": 652,
      "gh": 653,
      "eop": 654,
      "Ġbec": 655,
      "oin": 656,
      "urn": 657,
      "Ġbeen": 658,
      "wn": 659,
      "ics": 660,
      "ail": 661,
      "ings": 662,
      "ished": 663,
      "ft": 664,
      "Re": 665,
      "gan": 666,
      "Ġ5": 667,
      "The": 668,
      "chool": 669,
      "Ġ198": 670,
      "ward": 671,
      "ont": 672,
      "ĠAn": 673,
      "ĠLe": 674,
      "ict": 675,
      "Ġtwo": 676,
      "Ġcan": 677,
      "oh": 678,
      "ury": 679,
      "ĠDe": 680,
      "ĠSh": 681,
      "eople": 682,
      "xt": 683,
      "one": 684,
      "ata": 685,
      "ood": 686,
      "ms": 687,
      "rans": 688,
      "ral": 689,
      "Ġev": 690,
      "Ġpr": 691,
      "rib": 692,
      "Ġcol": 693,
      "Ġgro": 694,
      "Ġact": 695,
      "Ġloc": 696,
      "Ġthey": 697,
      "ision": 698,
      "iversity": 699,
      "ĠAmerican": 700,
      "ans": 701,
      "Ġinto": 702,
      "Ġoff": 703,
      "ren": 704,
      "Ġout": 705,
      "Ġafter": 706,
      "Ġpre": 707,
      "ĠOn": 708,
      "ton": 709,
      "Ġlin": 710,
      "Ġund": 711,
      "ose": 712,
      "ash": 713,
      "outh": 714,
      "du": 715,
      "Ġatt": 716,
      "Ġup": 717,
      "Ġover": 718,
      "Ġall": 719,
      "Ġnew": 720,
      "Ġpol": 721,
      "oot": 722,
      "Ġ197": 723,
      "cess": 724,
      "att": 725,
      "cent": 726,
      "Ġpubl": 727,
      "orld": 728,
      "rac": 729,
      "Ġsy": 730,
      "otes": 731,
      "com": 732,
      "Ġreg": 733,
      "ĠInd": 734,
      "ough": 735,
      "reat": 736,
      "Ġ8": 737,
      "ted": 738,
      "eral": 739,
      "Ġserv": 740,
      "ĠZ": 741,
      "Ġkn": 742,
      "ĠPro": 743,
      "way": 744,
      "References": 745,
      "ale": 746,
      "Ġne": 747,
      "rough": 748,
      "10": 749,
      "ick": 750,
      "ious": 751,
      "ames": 752,
      "show": 753,
      "az": 754,
      "Ġwork": 755,
      "ĠSc": 756,
      "Ġind": 757,
      "ĠUnited": 758,
      "nbs": 759,
      "nbsp": 760,
      "ities": 761,
      "anc": 762,
      "form": 763,
      "200": 764,
      "der": 765,
      "ĠCol": 766,
      "Ġ6": 767,
      "Ġunder": 768,
      "ĠSp": 769,
      "ann": 770,
      "Ġrel": 771,
      "Ġme": 772,
      "abl": 773,
      "Ġsub": 774,
      "ists": 775,
      "oci": 776,
      "ident": 777,
      "Ġyes": 778,
      "ock": 779,
      "ins": 780,
      "ĠThis": 781,
      "Ã©": 782,
      "Ġcons": 783,
      "duc": 784,
      "red": 785,
      "Ġtime": 786,
      "ular": 787,
      "Ġbet": 788,
      "Ġsup": 789,
      "ative": 790,
      "ily": 791,
      "emb": 792,
      "ĠUniversity": 793,
      "12": 794,
      "Ġbo": 795,
      "Ġ:": 796,
      "Ġcent": 797,
      "ball": 798,
      "rad": 799,
      "ake": 800,
      "ternal": 801,
      "Ġest": 802,
      "Ġ&": 803,
      "ĠEng": 804,
      "hen": 805,
      "Ġass": 806,
      "iel": 807,
      "ince": 808,
      "overn": 809,
      "usic": 810,
      "oth": 811,
      "any": 812,
      "Ġpeople": 813,
      "Ġsec": 814,
      "ific": 815,
      "orth": 816,
      "Ġmore": 817,
      "air": 818,
      "ional": 819,
      "raph": 820,
      "ix": 821,
      "ll": 822,
      "aj": 823,
      "Ġused": 824,
      "Ġ196": 825,
      "Ġwhen": 826,
      "aus": 827,
      "inn": 828,
      "Ġhim": 829,
      "Ġed": 830,
      "ween": 831,
      "Ġgen": 832,
      "ier": 833,
      "ollow": 834,
      "Ġform": 835,
      "resent": 836,
      "ject": 837,
      "Ġfound": 838,
      "ife": 839,
      "Ġ7": 840,
      "eat": 841,
      "Ġsuch": 842,
      "erman": 843,
      "16": 844,
      "Ġqu": 845,
      "17": 846,
      "ohn": 847,
      "Ġwould": 848,
      "Ġinter": 849,
      "\",": 850,
      "Ġra": 851,
      "arl": 852,
      "Ġfil": 853,
      "ten": 854,
      "ium": 855,
      "ve": 856,
      "eries": 857,
      "ĠOr": 858,
      "hip": 859,
      "Ġstud": 860,
      "ern": 861,
      "Ġco": 862,
      "hes": 863,
      "stem": 864,
      "eb": 865,
      "Ġlinks": 866,
      "istory": 867,
      "13": 868,
      "ism": 869,
      "Ġwhere": 870,
      "round": 871,
      "ĠStates": 872,
      "ron": 873,
      "velop": 874,
      "Ġbetween": 875,
      "ural": 876,
      "Ġonly": 877,
      "15": 878,
      "irect": 879,
      "Ġtrans": 880,
      "ating": 881,
      "ĠCl": 882,
      "Ġart": 883,
      "Ġshe": 884,
      "ert": 885,
      "Ġduring": 886,
      "xternal": 887,
      "ments": 888,
      "Ġinv": 889,
      "wik": 890,
      "Ġph": 891,
      "Ġbu": 892,
      "Ġthrough": 893,
      "ex": 894,
      "notes": 895,
      "enn": 896,
      "erm": 897,
      "Ġso": 898,
      "ĠFor": 899,
      "els": 900,
      "ĠâĢ": 901,
      "pr": 902,
      "Ġ\\": 903,
      "team": 904,
      "iam": 905,
      "ina": 906,
      "ober": 907,
      "Ġteam": 908,
      "ty": 909,
      "Ġmost": 910,
      "Ġspec": 911,
      "ĠIs": 912,
      "Ġtra": 913,
      "born": 914,
      "Ġwrit": 915,
      "ures": 916,
      "cc": 917,
      "uss": 918,
      "Ġyears": 919,
      "ement": 920,
      "mon": 921,
      "lo": 922,
      "Ġdist": 923,
      "199": 924,
      "ever": 925,
      "Ġnum": 926,
      "ĠQ": 927,
      "Ġprov": 928,
      "ouse": 929,
      "arg": 930,
      "Ġ13": 931,
      "eth": 932,
      "Ġret": 933,
      "ason": 934,
      "iew": 935,
      "ĠCon": 936,
      "14": 937,
      "02": 938,
      "Ġent": 939,
      "Ġknown": 940,
      "Ġam": 941,
      "Ġmod": 942,
      "Ġmay": 943,
      "inist": 944,
      "ograph": 945,
      "ys": 946,
      "Ġfollow": 947,
      "Ġabout": 948,
      "arly": 949,
      "stit": 950,
      "ars": 951,
      "bum": 952,
      "Ġestabl": 953,
      "Ġthan": 954,
      "26": 955,
      "ces": 956,
      "Ġrem": 957,
      "erson": 958,
      "ĠAs": 959,
      "Ġwe": 960,
      "fore": 961,
      "Ġend": 962,
      "tt": 963,
      "Ġdef": 964,
      "ank": 965,
      "Ġlead": 966,
      "ise": 967,
      "ĠJohn": 968,
      "oss": 969,
      "ley": 970,
      "ower": 971,
      "ution": 972,
      "ology": 973,
      "ĠAust": 974,
      "03": 975,
      "ines": 976,
      "Ġgroup": 977,
      "Ġ17": 978,
      "ield": 979,
      "Ġset": 980,
      "Ġdo": 981,
      "Ġ9": 982,
      "ĠPh": 983,
      "Ġthem": 984,
      "Ġ195": 985,
      "ĠBrit": 986,
      "\".": 987,
      "uro": 988,
      "Ġrele": 989,
      "Ġagain": 990,
      "its": 991,
      "Ġincluding": 992,
      "Ġ|-": 993,
      "Ġsome": 994,
      "Ġfam": 995,
      "Ġsing": 996,
      "ĠNational": 997,
      "Ġexp": 998,
      "Ġthere": 999,
      "Ġlater": 1000,
      "ax": 1001,
      "Ġ194": 1002,
      "iver": 1003,
      "Ġdevelop": 1004,
      "arn": 1005,
      "eng": 1006,
      "Ġem": 1007,
      "01": 1008,
      "ĠAd": 1009,
      "ĠCan": 1010,
      "Ġbl": 1011,
      "ike": 1012,
      "ĠFran": 1013,
      "Ġthen": 1014,
      "uth": 1015,
      "pen": 1016,
      "Ġsystem": 1017,
      "Ġoper": 1018,
      "Ġno": 1019,
      "rict": 1020,
      "ĠGerman": 1021,
      "Ġthree": 1022,
      "Ġmon": 1023,
      "Ġmov": 1024,
      "ather": 1025,
      "ives": 1026,
      "ternational": 1027,
      "ient": 1028,
      "Ġdr": 1029,
      "ract": 1030,
      "ai": 1031,
      "--": 1032,
      "Ġinc": 1033,
      "Ġcall": 1034,
      "ays": 1035,
      "uk": 1036,
      "rist": 1037,
      "Ġrecord": 1038,
      "Ġpop": 1039,
      "sp": 1040,
      "Ġ16": 1041,
      "Ġcount": 1042,
      ".\"": 1043,
      "ĠBl": 1044,
      "ĠShe": 1045,
      "000": 1046,
      "urch": 1047,
      "idata": 1048,
      "Ġalbum": 1049,
      "ues": 1050,
      "wikidata": 1051,
      "Ġchar": 1052,
      "Ġbeing": 1053,
      "elf": 1054,
      "ized": 1055,
      "rid": 1056,
      "lev": 1057,
      "Ġrep": 1058,
      "ĠCount": 1059,
      "ev": 1060,
      "ull": 1061,
      "Ġgovern": 1062,
      "ounc": 1063,
      "Ġmed": 1064,
      "ived": 1065,
      "ĠWorld": 1066,
      "other": 1067,
      "ute": 1068,
      "iving": 1069,
      "Ġorgan": 1070,
      "yn": 1071,
      "Ġorig": 1072,
      "Ġadd": 1073,
      "04": 1074,
      "cept": 1075,
      "esc": 1076,
      "Ġschool": 1077,
      "ept": 1078,
      "omen": 1079,
      "Ġpolit": 1080,
      "Ġwell": 1081,
      "Ġ15": 1082,
      "ĠSchool": 1083,
      "External": 1084,
      "lish": 1085,
      "ets": 1086,
      "Ġname": 1087,
      "ility": 1088,
      "Ġ2006": 1089,
      "une": 1090,
      "chn": 1091,
      "25": 1092,
      "ital": 1093,
      "ae": 1094,
      "ĠSouth": 1095,
      "Ġsur": 1096,
      "irth": 1097,
      "ruct": 1098,
      "Ġseries": 1099,
      "Ġsecond": 1100,
      "ps": 1101,
      "very": 1102,
      "ĠPl": 1103,
      "Ġdif": 1104,
      "Ġmade": 1105,
      "ered": 1106,
      "Ġown": 1107,
      "ootball": 1108,
      "ĠWar": 1109,
      "Ġhigh": 1110,
      "ĠComm": 1111,
      "Ġ10": 1112,
      "11": 1113,
      "eg": 1114,
      "Ġbro": 1115,
      "Ġmusic": 1116,
      "ott": 1117,
      "gram": 1118,
      "isc": 1119,
      "ple": 1120,
      "Ġdeath": 1121,
      "by": 1122,
      "Ġfl": 1123,
      "ices": 1124,
      "Ġsign": 1125,
      "ĠTe": 1126,
      "Ġcap": 1127,
      "Ġwhile": 1128,
      "seed": 1129,
      "ants": 1130,
      "ians": 1131,
      "Ġmany": 1132,
      "ages": 1133,
      "inc": 1134,
      "Ġdec": 1135,
      "Ġvar": 1136,
      "yl": 1137,
      "amb": 1138,
      "angu": 1139,
      "Ġbecame": 1140,
      "owever": 1141,
      "ĠWh": 1142,
      "Ġgo": 1143,
      "Ġ'": 1144,
      "Ġboth": 1145,
      "icial": 1146,
      "ĠPr": 1147,
      "Ġdesign": 1148,
      "ĠAustral": 1149,
      "ĠBritish": 1150,
      "embers": 1151,
      "Ġmain": 1152,
      "mp": 1153,
      "au": 1154,
      "Ġstate": 1155,
      "Ġacc": 1156,
      "Ġdirect": 1157,
      "my": 1158,
      "ĠJan": 1159,
      "ĠGe": 1160,
      "the": 1161,
      "ĠYork": 1162,
      "ode": 1163,
      "fl": 1164,
      "ible": 1165,
      "ross": 1166,
      "Ġsong": 1167,
      "oman": 1168,
      "ĠAt": 1169,
      "ually": 1170,
      "Ġprodu": 1171,
      "Ġbefore": 1172,
      "198": 1173,
      "ĠMay": 1174,
      "rand": 1175,
      "Ġcre": 1176,
      "Ġpublic": 1177,
      "ĠKing": 1178,
      "Ġlocal": 1179,
      "ica": 1180,
      "ved": 1181,
      "Ġsever": 1182,
      "Ġcar": 1183,
      "Ġfilm": 1184,
      "ĠReg": 1185,
      "Ġ193": 1186,
      "Ġ====": 1187,
      "Ġgu": 1188,
      "Ġwill": 1189,
      "let": 1190,
      "Ã¡": 1191,
      "ĠCent": 1192,
      "ety": 1193,
      "ourn": 1194,
      "Ġnumber": 1195,
      "imes": 1196,
      "por": 1197,
      "Ġext": 1198,
      "Ġelect": 1199,
      "Ġuse": 1200,
      "Ġrefer": 1201,
      "son": 1202,
      "ĠII": 1203,
      "vent": 1204,
      "Ġdisc": 1205,
      "06": 1206,
      "ently": 1207,
      "ior": 1208,
      "Ġfour": 1209,
      "eter": 1210,
      "ĠCanad": 1211,
      "Ġback": 1212,
      "Ġappear": 1213,
      "til": 1214,
      "Ġbirth": 1215,
      "05": 1216,
      "itle": 1217,
      "ague": 1218,
      "Ġshow": 1219,
      "ĠBo": 1220,
      "Ġarea": 1221,
      "urr": 1222,
      "ird": 1223,
      "Ġrev": 1224,
      "ris": 1225,
      "ĠEd": 1226,
      "amed": 1227,
      "ĠCar": 1228,
      "ange": 1229,
      "af": 1230,
      "Ġinst": 1231,
      "ause": 1232,
      "ĠReferences": 1233,
      "ator": 1234,
      "Ġtr": 1235,
      "24": 1236,
      "ilit": 1237,
      "ĠGu": 1238,
      "ired": 1239,
      "osed": 1240,
      "led": 1241,
      "ission": 1242,
      "ĠAss": 1243,
      "07": 1244,
      "itt": 1245,
      "ĠPol": 1246,
      "ref": 1247,
      "08": 1248,
      "ically": 1249,
      "..": 1250,
      "ĠNo": 1251,
      "Ġsm": 1252,
      "Ġpar": 1253,
      "ulation": 1254,
      "ĠAm": 1255,
      "Ġfeat": 1256,
      "Ġthese": 1257,
      "istor": 1258,
      "Ch": 1259,
      "right": 1260,
      "Ġcommun": 1261,
      "fess": 1262,
      "Ġdesc": 1263,
      "lection": 1264,
      "ajor": 1265,
      "23": 1266,
      "con": 1267,
      "row": 1268,
      "ĠCo": 1269,
      "uary": 1270,
      "aid": 1271,
      "Ġagainst": 1272,
      "ĠMan": 1273,
      "ĠCounty": 1274,
      "ience": 1275,
      "Ġ14": 1276,
      "erg": 1277,
      "âĢĻ": 1278,
      "orks": 1279,
      "ful": 1280,
      "Ġann": 1281,
      "ĠMarch": 1282,
      "ĠEuro": 1283,
      "lege": 1284,
      "ĠNorth": 1285,
      "uthor": 1286,
      "ene": 1287,
      "Ġdep": 1288,
      "Ġpartic": 1289,
      "ĠAll": 1290,
      "ĠJu": 1291,
      "ĠEnglish": 1292,
      "itions": 1293,
      "Ġlong": 1294,
      "Ġcharact": 1295,
      "Ġfamily": 1296,
      "ained": 1297,
      "Ġeff": 1298,
      "**": 1299,
      "ĠNov": 1300,
      "Ġpres": 1301,
      "Ġformer": 1302,
      "ctober": 1303,
      "ĠRep": 1304,
      "ugust": 1305,
      "Ġcalled": 1306,
      "Ġsame": 1307,
      "Ġseveral": 1308,
      "Ġsupport": 1309,
      "Ġsim": 1310,
      "Ġprogram": 1311,
      "ym": 1312,
      "Ġproduc": 1313,
      "ĠAf": 1314,
      "Ġearly": 1315,
      "Ġ12": 1316,
      "oint": 1317,
      "ography": 1318,
      "bo": 1319,
      "century": 1320,
      "Ġty": 1321,
      "Ġuntil": 1322,
      "Ġresp": 1323,
      "ret": 1324,
      "ency": 1325,
      "ĠAfter": 1326,
      "Ġlaw": 1327,
      "ove": 1328,
      "eptember": 1329,
      "ivision": 1330,
      "Ġcontin": 1331,
      "earch": 1332,
      "Ġestablished": 1333,
      "197": 1334,
      "ection": 1335,
      "St": 1336,
      "alth": 1337,
      "Ġany": 1338,
      "ĠBro": 1339,
      "wards": 1340,
      "Ġmar": 1341,
      "ring": 1342,
      "ured": 1343,
      "Ġbuild": 1344,
      "rop": 1345,
      "ĠBe": 1346,
      "ne": 1347,
      "irc": 1348,
      "ĠCity": 1349,
      "Ġbased": 1350,
      "pril": 1351,
      "olor": 1352,
      "ĠBar": 1353,
      "Ġbel": 1354,
      "See": 1355,
      "atch": 1356,
      "ky": 1357,
      "ung": 1358,
      "Ġeng": 1359,
      "apan": 1360,
      "ally": 1361,
      "ains": 1362,
      "ĠChrist": 1363,
      "ĠWill": 1364,
      "aking": 1365,
      "ĠCal": 1366,
      "ĠUS": 1367,
      "ham": 1368,
      "ature": 1369,
      "reen": 1370,
      "Ġclass": 1371,
      "Ġopen": 1372,
      "21": 1373,
      "ĠX": 1374,
      "ĠHar": 1375,
      "ampions": 1376,
      "Ġoriginal": 1377,
      "ese": 1378,
      "mber": 1379,
      "Ġchild": 1380,
      "=\"": 1381,
      "ery": 1382,
      "yle": 1383,
      "ze": 1384,
      "ised": 1385,
      "Ġnear": 1386,
      "ĠEx": 1387,
      "Ġlist": 1388,
      "Ġmembers": 1389,
      "Ġgovernment": 1390,
      "Ġfollowing": 1391,
      "Ġocc": 1392,
      "ĠThey": 1393,
      "hem": 1394,
      "Ġcompany": 1395,
      "Ġlife": 1396,
      "Ġreport": 1397,
      "ke": 1398,
      "Ġvers": 1399,
      "22": 1400,
      "Ġrun": 1401,
      "ued": 1402,
      "ĠEurope": 1403,
      "Ġfootball": 1404,
      "Ġ[": 1405,
      "ĠâĢĶ": 1406,
      "Ġimp": 1407,
      "]]": 1408,
      "Ġleg": 1409,
      "ined": 1410,
      "ival": 1411,
      "ales": 1412,
      "cember": 1413,
      "ĠOctober": 1414,
      "ĠAnd": 1415,
      "Ġmin": 1416,
      "iness": 1417,
      "osition": 1418,
      "anguage": 1419,
      "Ġreleased": 1420,
      "Ġseason": 1421,
      "Ġrece": 1422,
      "ĠEn": 1423,
      "Ġpo": 1424,
      "ublic": 1425,
      "ization": 1426,
      "ocial": 1427,
      "Ġsince": 1428,
      "Ġstart": 1429,
      "go": 1430,
      "Ġsuc": 1431,
      "ĠAugust": 1432,
      "ane": 1433,
      "ourt": 1434,
      "Ġdiffer": 1435,
      "ven": 1436,
      "atic": 1437,
      "Ġeach": 1438,
      "ĠState": 1439,
      "to": 1440,
      "Ġcentury": 1441,
      "Ġpublished": 1442,
      "Ġ0": 1443,
      "aster": 1444,
      "ĠMc": 1445,
      "ĠSeptember": 1446,
      "ebru": 1447,
      "arm": 1448,
      "ebruary": 1449,
      "ats": 1450,
      "ights": 1451,
      "que": 1452,
      "ided": 1453,
      "ĠAb": 1454,
      "ĠJanuary": 1455,
      "ford": 1456,
      "Ġband": 1457,
      "Ġcomple": 1458,
      "Ġob": 1459,
      "ĠFl": 1460,
      "In": 1461,
      "rench": 1462,
      "Ġstr": 1463,
      "Ġperson": 1464,
      "ask": 1465,
      "oks": 1466,
      "rol": 1467,
      "ĠJune": 1468,
      "ĠComp": 1469,
      "Ġheld": 1470,
      "iet": 1471,
      "ĠApril": 1472,
      "ended": 1473,
      "ille": 1474,
      "adium": 1475,
      "28": 1476,
      "Ġred": 1477,
      "ĠGen": 1478,
      "Ġgame": 1479,
      "ĠSe": 1480,
      "orm": 1481,
      "rew": 1482,
      "Ġref": 1483,
      "levision": 1484,
      "27": 1485,
      "ck": 1486,
      "ried": 1487,
      "ony": 1488,
      "Ġmark": 1489,
      "ĠWest": 1490,
      "augh": 1491,
      "rack": 1492,
      "ble": 1493,
      "ĠPar": 1494,
      "09": 1495,
      "ified": 1496,
      "à¤": 1497,
      "Ġmet": 1498,
      "ĠPart": 1499,
      "uman": 1500,
      "Ġhead": 1501,
      "ides": 1502,
      "196": 1503,
      "Ġprom": 1504,
      "ĠGeor": 1505,
      "ĠHis": 1506,
      "Ġreturn": 1507,
      "Ġplace": 1508,
      "Ġcompet": 1509,
      "Ġrequ": 1510,
      "Ġdet": 1511,
      "ana": 1512,
      "ially": 1513,
      "ĠTr": 1514,
      "aint": 1515,
      "Ġwon": 1516,
      "int": 1517,
      "Ġcity": 1518,
      "Ġfinal": 1519,
      "ling": 1520,
      "ster": 1521,
      "ĠJuly": 1522,
      "ords": 1523,
      "urg": 1524,
      "ries": 1525,
      "ration": 1526,
      "ĠRuss": 1527,
      "Ġland": 1528,
      "Ġfin": 1529,
      "ĠJapan": 1530,
      "ĠSw": 1531,
      "usiness": 1532,
      "med": 1533,
      "ĠRec": 1534,
      "iven": 1535,
      "Ġmajor": 1536,
      "Ġeduc": 1537,
      "ilitary": 1538,
      "load": 1539,
      "ram": 1540,
      "lat": 1541,
      "che": 1542,
      "ĠDecember": 1543,
      "ner": 1544,
      "side": 1545,
      "Ġpass": 1546,
      "ink": 1547,
      "ĠPark": 1548,
      "adem": 1549,
      "ĠHigh": 1550,
      "ĠEl": 1551,
      "Ġnov": 1552,
      "ino": 1553,
      "Ġnational": 1554,
      "Ġworld": 1555,
      "ilt": 1556,
      "Ġif": 1557,
      "ards": 1558,
      "Ġtrad": 1559,
      "ases": 1560,
      "iod": 1561,
      "Ġdescrib": 1562,
      "aul": 1563,
      "arge": 1564,
      "me": 1565,
      "dom": 1566,
      "ĠCollege": 1567,
      "Ġsmall": 1568,
      "ondon": 1569,
      "Ġalong": 1570,
      "Ġcould": 1571,
      "ĠAct": 1572,
      "ĠFebruary": 1573,
      "ize": 1574,
      "Ġwithin": 1575,
      "Ġ2004": 1576,
      "Ġterm": 1577,
      "lon": 1578,
      "ĠNovember": 1579,
      "oph": 1580,
      "ĠDist": 1581,
      "ality": 1582,
      "Ġ,": 1583,
      "Ġ2000": 1584,
      "ĠHowever": 1585,
      "use": 1586,
      "Ġgeneral": 1587,
      "ship": 1588,
      "aced": 1589,
      "29": 1590,
      "45": 1591,
      "Ġinclude": 1592,
      "vers": 1593,
      "Ġauthor": 1594,
      "Ġbook": 1595,
      "ĠAfric": 1596,
      "image": 1597,
      "ument": 1598,
      "ĠRes": 1599,
      "ĠDav": 1600,
      "ĠRo": 1601,
      "Ġ.": 1602,
      "uid": 1603,
      "ett": 1604,
      "oung": 1605,
      "idd": 1606,
      "ĠSup": 1607,
      "Ġbegan": 1608,
      "Ġrest": 1609,
      "Ġtext": 1610,
      "ÃŃ": 1611,
      "aving": 1612,
      "ĠMe": 1613,
      "ef": 1614,
      "ara": 1615,
      "Ġter": 1616,
      "ĠWilliam": 1617,
      "Ġcare": 1618,
      "Ġtechn": 1619,
      "co": 1620,
      "umb": 1621,
      "ĠMed": 1622,
      "ody": 1623,
      "Ġprot": 1624,
      "Ġdem": 1625,
      "Ġresult": 1626,
      "line": 1627,
      "alt": 1628,
      "ording": 1629,
      "Ġconst": 1630,
      "Ġstand": 1631,
      "Ġallow": 1632,
      "Ġappro": 1633,
      "Ġequ": 1634,
      "Ġwomen": 1635,
      "ampionship": 1636,
      "ĠThere": 1637,
      "Ġoften": 1638,
      "ĠSec": 1639,
      "ief": 1640,
      "Ġpower": 1641,
      "Ġhistory": 1642,
      "Ġdid": 1643,
      ".,": 1644,
      "Ġdown": 1645,
      "estern": 1646,
      "ĠAir": 1647,
      "Ġnamed": 1648,
      "ĠLondon": 1649,
      "aim": 1650,
      "ately": 1651,
      "common": 1652,
      "eal": 1653,
      "urs": 1654,
      "Ġcor": 1655,
      "akes": 1656,
      "itional": 1657,
      "pg": 1658,
      "reet": 1659,
      "Ġhel": 1660,
      "iter": 1661,
      "Ġaround": 1662,
      "ĠPhil": 1663,
      "ler": 1664,
      "ĠHer": 1665,
      "Ġ2026": 1666,
      "Ġevent": 1667,
      "ĠFrench": 1668,
      "Ã³": 1669,
      "Ġ2001": 1670,
      "50": 1671,
      "uf": 1672,
      "ouncil": 1673,
      "Ġpresent": 1674,
      "lin": 1675,
      "Ġdifferent": 1676,
      "Ġwar": 1677,
      "Ġofficial": 1678,
      "jpg": 1679,
      "Ġactiv": 1680,
      "Ġconsid": 1681,
      "American": 1682,
      "Ġorder": 1683,
      "Ġadv": 1684,
      "epend": 1685,
      "Ġplayer": 1686,
      "raft": 1687,
      "Ġmember": 1688,
      "ald": 1689,
      "Ġla": 1690,
      "Ġsingle": 1691,
      "Ġ2005": 1692,
      "reg": 1693,
      "Ġcr": 1694,
      "ones": 1695,
      "Ġnow": 1696,
      "ison": 1697,
      "Ġdue": 1698,
      "Ġval": 1699,
      "Ġrepresent": 1700,
      "ering": 1701,
      "ĠCor": 1702,
      "Ġiss": 1703,
      "Ġsuccess": 1704,
      "Ġlast": 1705,
      "desc": 1706,
      "Ġmanag": 1707,
      "urther": 1708,
      "aly": 1709,
      "ĠInternational": 1710,
      "alk": 1711,
      "apt": 1712,
      "ected": 1713,
      "Ġsl": 1714,
      "ociation": 1715,
      "ĠBr": 1716,
      "yd": 1717,
      "uck": 1718,
      "rag": 1719,
      "conom": 1720,
      "app": 1721,
      "Ġpat": 1722,
      "ray": 1723,
      "Ġav": 1724,
      "ote": 1725,
      "Ġcult": 1726,
      "formation": 1727,
      "Ġprofess": 1728,
      "ribut": 1729,
      "of": 1730,
      "Ġprev": 1731,
      "umm": 1732,
      "Ġbecause": 1733,
      "ki": 1734,
      "Ġnon": 1735,
      "scat": 1736,
      "day": 1737,
      "leg": 1738,
      "Ġtitle": 1739,
      "Ġprocess": 1740,
      "ush": 1741,
      "Ġ11": 1742,
      "Ġ2007": 1743,
      "grid": 1744,
      "commonscat": 1745,
      "ington": 1746,
      "Ġcurr": 1747,
      "ĠArt": 1748,
      "ipp": 1749,
      "ĠAng": 1750,
      "Ġshort": 1751,
      "ĠLa": 1752,
      "Ġcharacter": 1753,
      "ĠIndia": 1754,
      "img": 1755,
      "ridge": 1756,
      "Ġcamp": 1757,
      "ves": 1758,
      "upload": 1759,
      "Ġperiod": 1760,
      "ĠIndian": 1761,
      "Ġvis": 1762,
      "Ġ;": 1763,
      "ĠChurch": 1764,
      "Ġread": 1765,
      "Ġclub": 1766,
      "Ġep": 1767,
      "illion": 1768,
      "Ã¼": 1769,
      "bsite": 1770,
      "ius": 1771,
      "ĠAg": 1772,
      "minist": 1773,
      "ĠHouse": 1774,
      "Ġpost": 1775,
      "Ġexper": 1776,
      "Ġkill": 1777,
      "====": 1778,
      "olution": 1779,
      "52": 1780,
      "ense": 1781,
      "ama": 1782,
      "Ġson": 1783,
      "ining": 1784,
      "Ġincre": 1785,
      "ĠGl": 1786,
      "though": 1787,
      "Ġproject": 1788,
      "read": 1789,
      "omin": 1790,
      "Ġcountry": 1791,
      "ript": 1792,
      "Ġlarge": 1793,
      "ĠEngland": 1794,
      "Ġhome": 1795,
      "adio": 1796,
      "Ġhistor": 1797,
      "ness": 1798,
      "ories": 1799,
      "duct": 1800,
      "ference": 1801,
      "Ġold": 1802,
      "44": 1803,
      "Ġhand": 1804,
      "ĠLeague": 1805,
      "Ġalign": 1806,
      "Ġlike": 1807,
      "Ġday": 1808,
      "ĠPer": 1809,
      "aps": 1810,
      "ĠAc": 1811,
      "aces": 1812,
      "Ġarch": 1813,
      "Ġaff": 1814,
      "Ġincluded": 1815,
      "Ġlocated": 1816,
      "align": 1817,
      "::": 1818,
      "Ġinvol": 1819,
      "Ġmen": 1820,
      "ideo": 1821,
      "ches": 1822,
      "Ġline": 1823,
      "attle": 1824,
      "ournal": 1825,
      "Ġ/": 1826,
      "Ġtop": 1827,
      "Ġcommon": 1828,
      "Ġgames": 1829,
      "Ġtelevision": 1830,
      "Ġleft": 1831,
      "ively": 1832,
      "Ġ2002": 1833,
      "Ġstation": 1834,
      "Ġplayed": 1835,
      "osp": 1836,
      "hern": 1837,
      "Ġtook": 1838,
      "âĢĶ": 1839,
      "ociety": 1840,
      "itor": 1841,
      "ĠDistrict": 1842,
      "work": 1843,
      "77": 1844,
      "ĠOrder": 1845,
      "ogn": 1846,
      "Ġmult": 1847,
      "ests": 1848,
      "van": 1849,
      "ĠAustralia": 1850,
      "30": 1851,
      "ox": 1852,
      "38": 1853,
      "ĠBy": 1854,
      "Ġdel": 1855,
      "Ġfun": 1856,
      "51": 1857,
      "orts": 1858,
      "ma": 1859,
      "iforn": 1860,
      "ico": 1861,
      "roup": 1862,
      "ĠCanada": 1863,
      "ether": 1864,
      "Ġair": 1865,
      "Un": 1866,
      "ĠMich": 1867,
      "eration": 1868,
      "ĠCup": 1869,
      "ĠMon": 1870,
      "ced": 1871,
      "Ġusing": 1872,
      "Ġserved": 1873,
      "ecut": 1874,
      "Ġthose": 1875,
      "Ġdevelopment": 1876,
      "ape": 1877,
      "era": 1878,
      "off": 1879,
      "Ġlab": 1880,
      "Ġchildren": 1881,
      "ope": 1882,
      "Ġexpl": 1883,
      "Ġmag": 1884,
      "Ġ2008": 1885,
      "ots": 1886,
      "Ġposs": 1887,
      "rick": 1888,
      "ifornia": 1889,
      "36": 1890,
      "ĠSch": 1891,
      "riend": 1892,
      "eek": 1893,
      "ared": 1894,
      "Ġlo": 1895,
      "iron": 1896,
      "ugg": 1897,
      "uel": 1898,
      "view": 1899,
      "Ġfact": 1900,
      "orthern": 1901,
      "iber": 1902,
      "Ġopp": 1903,
      "unic": 1904,
      "ĠPres": 1905,
      "Ġborn": 1906,
      "Ġrepl": 1907,
      "Ġ2025": 1908,
      "Ġbusiness": 1909,
      "ruction": 1910,
      "Ġlarg": 1911,
      "ploy": 1912,
      "arch": 1913,
      "ician": 1914,
      "ĠMount": 1915,
      "Ġel": 1916,
      "Ġeffect": 1917,
      "ĠEm": 1918,
      "Ġconc": 1919,
      "Ġeven": 1920,
      "lex": 1921,
      "39": 1922,
      "na": 1923,
      "Ġamong": 1924,
      "ĠThese": 1925,
      "Ġinternational": 1926,
      "hel": 1927,
      "iction": 1928,
      "ael": 1929,
      "Ġjust": 1930,
      "Ġversion": 1931,
      "color": 1932,
      "Ġintro": 1933,
      "ĠEast": 1934,
      "ivil": 1935,
      "Ġwater": 1936,
      "ĠMor": 1937,
      "ww": 1938,
      "ĠOne": 1939,
      "esp": 1940,
      "46": 1941,
      "Ġsk": 1942,
      "Ġengine": 1943,
      "omet": 1944,
      "Ġtown": 1945,
      "val": 1946,
      "Ġinit": 1947,
      "Ġstill": 1948,
      "olic": 1949,
      "icle": 1950,
      "ological": 1951,
      "ample": 1952,
      "Ġthough": 1953,
      "ĠOff": 1954,
      "ĠPort": 1955,
      "Ġstruct": 1956,
      "ront": 1957,
      "ops": 1958,
      "itar": 1959,
      "ĠDuring": 1960,
      "ament": 1961,
      "Ġfac": 1962,
      "Ġreceived": 1963,
      "Ġperform": 1964,
      "ĠCalifornia": 1965,
      "Ġcover": 1966,
      "Ġfre": 1967,
      "Ġ2010": 1968,
      "ĠSan": 1969,
      "oll": 1970,
      "year": 1971,
      "Ġ25": 1972,
      "Ġident": 1973,
      "omb": 1974,
      "ources": 1975,
      "Ġbirths": 1976,
      "Ġpopulation": 1977,
      "ĠMal": 1978,
      "ĠChar": 1979,
      "Ġmat": 1980,
      "ĠList": 1981,
      "Ġjoin": 1982,
      "Ġpract": 1983,
      "Ġfield": 1984,
      "lands": 1985,
      "uation": 1986,
      "ST": 1987,
      "ours": 1988,
      "Ġservice": 1989,
      "Ġcrit": 1990,
      "Ġestablish": 1991,
      "Ġsaid": 1992,
      "35": 1993,
      "Ġgiven": 1994,
      "Ġimport": 1995,
      "ĠWhen": 1996,
      "Ġled": 1997,
      "ground": 1998,
      "Ġworks": 1999,
      "Ġport": 2000,
      "Ġfive": 2001,
      "Ġ24": 2002,
      "Ġanother": 2003,
      "ĠAmer": 2004,
      "eed": 2005,
      "Ġbuilt": 2006,
      "Ġbar": 2007,
      "ĠÃ": 2008,
      "ĠSm": 2009,
      "Ġvol": 2010,
      "37": 2011,
      "cast": 2012,
      "oon": 2013,
      "ari": 2014,
      "Ġ30": 2015,
      "Ġvery": 2016,
      "lic": 2017,
      "ĠRoman": 2018,
      "artment": 2019,
      "inning": 2020,
      "Ġsocial": 2021,
      "anish": 2022,
      "umn": 2023,
      "ivid": 2024,
      "ĠQu": 2025,
      "ander": 2026,
      "Ġbeg": 2027,
      "Ġdata": 2028,
      "raw": 2029,
      "Ġtem": 2030,
      "Ġpolitical": 2031,
      "Ġ189": 2032,
      "Ġwebsite": 2033,
      "ti": 2034,
      "ban": 2035,
      "Ġprop": 2036,
      "oyal": 2037,
      "ole": 2038,
      "ĠFile": 2039,
      "Ġmilitary": 2040,
      "ĠRiver": 2041,
      "ule": 2042,
      "Ġsix": 2043,
      "48": 2044,
      "ination": 2045,
      "ĠRober": 2046,
      "eh": 2047,
      "Ġthird": 2048,
      "aff": 2049,
      "ead": 2050,
      "ĠJames": 2051,
      "AR": 2052,
      "Ġstyle": 2053,
      "ilar": 2054,
      "stitut": 2055,
      "Ġ2003": 2056,
      "alf": 2057,
      "ested": 2058,
      "Ġgl": 2059,
      "Ġdied": 2060,
      "Ġgroups": 2061,
      "Ġlevel": 2062,
      "ĠAcc": 2063,
      "istan": 2064,
      "iol": 2065,
      "ĠHol": 2066,
      "Ġdeb": 2067,
      "men": 2068,
      "ĠDavid": 2069,
      "ĠHistory": 2070,
      "ored": 2071,
      "Ġinfl": 2072,
      "Ġsold": 2073,
      "ĠKingdom": 2074,
      "rain": 2075,
      "ĠDep": 2076,
      "Ġ2009": 2077,
      "Ġhelp": 2078,
      "ĠNor": 2079,
      "Ġinf": 2080,
      "Ġ1998": 2081,
      "Ġvarious": 2082,
      "Ġdescribed": 2083,
      "Ġwhat": 2084,
      "Ġarr": 2085,
      "Ar": 2086,
      "Ġchang": 2087,
      "Ġsett": 2088,
      "ĠThom": 2089,
      "Ġcreated": 2090,
      "ĠStreet": 2091,
      "Ġconf": 2092,
      "Ġprim": 2093,
      "forman": 2094,
      "ĠAustralian": 2095,
      "Ġlanguage": 2096,
      "Ġspecial": 2097,
      "Ġwritten": 2098,
      "Ġturn": 2099,
      "Ġcommunity": 2100,
      "Ġcomb": 2101,
      "58": 2102,
      "78": 2103,
      "ĠGermany": 2104,
      "Ġspecies": 2105,
      "Ġprevious": 2106,
      "itect": 2107,
      "Ġtyp": 2108,
      "Ġstat": 2109,
      "ĠGeneral": 2110,
      "Ġlate": 2111,
      "ĠParty": 2112,
      "ĠLou": 2113,
      "aining": 2114,
      "Ã¶": 2115,
      "ĠPaul": 2116,
      "ĠKh": 2117,
      "ĠDr": 2118,
      "ala": 2119,
      "ĠCouncil": 2120,
      "ulations": 2121,
      "ĠRich": 2122,
      "ched": 2123,
      "Ġ$": 2124,
      "ta": 2125,
      "anies": 2126,
      "Com": 2127,
      "Ġproduced": 2128,
      "49": 2129,
      "Al": 2130,
      "irl": 2131,
      "Ġbroad": 2132,
      "Ġ2011": 2133,
      "uff": 2134,
      "Ġcontrol": 2135,
      "ĠUnion": 2136,
      "lymp": 2137,
      "Ġsw": 2138,
      "ĠMart": 2139,
      "Ġcareer": 2140,
      "59": 2141,
      "ĠPress": 2142,
      "club": 2143,
      "Ġvill": 2144,
      "ĠSy": 2145,
      "ream": 2146,
      "Ġhost": 2147,
      "iment": 2148,
      "acks": 2149,
      "acy": 2150,
      "An": 2151,
      "ĠTrans": 2152,
      "Ġhouse": 2153,
      "astern": 2154,
      "Ġpopular": 2155,
      "ena": 2156,
      "ago": 2157,
      "ĠStud": 2158,
      "lected": 2159,
      "Ġaut": 2160,
      "center": 2161,
      "inister": 2162,
      "rab": 2163,
      "Ġpri": 2164,
      "ults": 2165,
      "Ġlim": 2166,
      "Ġfather": 2167,
      "Ġeducation": 2168,
      "Ġmake": 2169,
      "Ġyoung": 2170,
      "Ġneed": 2171,
      "Ġclaim": 2172,
      "ength": 2173,
      "ĠBer": 2174,
      "ĠAmerica": 2175,
      "hers": 2176,
      "Ġrelations": 2177,
      "ention": 2178,
      "ĠGeorge": 2179,
      "Ġproduction": 2180,
      "ify": 2181,
      "Ġhuman": 2182,
      "ha": 2183,
      "Ġbuilding": 2184,
      "Ġwithout": 2185,
      "Ġbecome": 2186,
      "Ġsite": 2187,
      "Ġsee": 2188,
      "Ġ21": 2189,
      "ification": 2190,
      "56": 2191,
      "hib": 2192,
      "ites": 2193,
      "tal": 2194,
      "ĠFrance": 2195,
      "Ġmuch": 2196,
      "ĠAssociation": 2197,
      "reek": 2198,
      "Ġproduct": 2199,
      "Ġregion": 2200,
      "ethod": 2201,
      "Ġsol": 2202,
      "ividual": 2203,
      "Ġexample": 2204,
      "ĠBel": 2205,
      "ership": 2206,
      "76": 2207,
      "Ġconn": 2208,
      "be": 2209,
      "ij": 2210,
      "Ġrole": 2211,
      "âĢĿ": 2212,
      "ĠIm": 2213,
      "Ġevents": 2214,
      "Ġway": 2215,
      "Ġmonth": 2216,
      "useum": 2217,
      "ocus": 2218,
      "ĠChampionship": 2219,
      "sequ": 2220,
      "ilm": 2221,
      "Ġstory": 2222,
      "Ġgr": 2223,
      "Ġnovel": 2224,
      "ney": 2225,
      "//": 2226,
      "ĠCourt": 2227,
      "ĠGovern": 2228,
      "ya": 2229,
      "ĠMag": 2230,
      "ability": 2231,
      "self": 2232,
      "Ġevery": 2233,
      "Ġindust": 2234,
      "Ġpe": 2235,
      "Ġdistrict": 2236,
      "Ġtri": 2237,
      "ĠArmy": 2238,
      "ows": 2239,
      "Ġround": 2240,
      "text": 2241,
      "Ġcase": 2242,
      "ĠWe": 2243,
      "ĠServ": 2244,
      "pro": 2245,
      "ili": 2246,
      "BC": 2247,
      "://": 2248,
      "Ġbest": 2249,
      "ĠAward": 2250,
      "Ġfounded": 2251,
      "Ġeconom": 2252,
      "ĠVal": 2253,
      "ĠMusic": 2254,
      "ibr": 2255,
      "bl": 2256,
      "Ġresearch": 2257,
      "thern": 2258,
      "aper": 2259,
      "ux": 2260,
      "viron": 2261,
      "ĠEuropean": 2262,
      "Ġreal": 2263,
      "Ġacross": 2264,
      "Ġtake": 2265,
      "Ġbeh": 2266,
      "Ġ2012": 2267,
      "odes": 2268,
      "ĠRed": 2269,
      "40": 2270,
      "rian": 2271,
      "aken": 2272,
      "ĠQue": 2273,
      "ports": 2274,
      "Ġbre": 2275,
      "Ġadminist": 2276,
      "bor": 2277,
      "goals": 2278,
      "Ġ188": 2279,
      "ummer": 2280,
      "ndash": 2281,
      "ĠFrom": 2282,
      "lear": 2283,
      "rap": 2284,
      "avy": 2285,
      "oe": 2286,
      "Sh": 2287,
      "Ġparticip": 2288,
      "ertain": 2289,
      "ĠWith": 2290,
      "Th": 2291,
      "name": 2292,
      "Ġ28": 2293,
      "oints": 2294,
      "ĠSee": 2295,
      "Ġsent": 2296,
      "Ġstudents": 2297,
      "Ġfind": 2298,
      "stitute": 2299,
      "Ġsimilar": 2300,
      "Ġ2014": 2301,
      "outhern": 2302,
      "Ġparticular": 2303,
      "Ġproper": 2304,
      "Ġassoci": 2305,
      "Ġcond": 2306,
      "ĠCanadian": 2307,
      "Ġplayers": 2308,
      "Ġ1990": 2309,
      "Ġ2016": 2310,
      "Ġnorth": 2311,
      "part": 2312,
      "less": 2313,
      "etwork": 2314,
      "ances": 2315,
      "ounced": 2316,
      "aur": 2317,
      "Ġdoes": 2318,
      "History": 2319,
      "Ġposition": 2320,
      "Ġrul": 2321,
      "zer": 2322,
      "ĠDivision": 2323,
      "Ġ26": 2324,
      "ĠCont": 2325,
      "Ġattem": 2326,
      "33": 2327,
      "Ġshould": 2328,
      "now": 2329,
      "aries": 2330,
      "Ġrecogn": 2331,
      "79": 2332,
      "Ġmust": 2333,
      "Ġ()": 2334,
      "aut": 2335,
      "arliam": 2336,
      "Ġvideo": 2337,
      "ators": 2338,
      "Ġview": 2339,
      "Ġright": 2340,
      "ville": 2341,
      "ising": 2342,
      "sy": 2343,
      "Ġaward": 2344,
      "Ġinflu": 2345,
      "iddle": 2346,
      "Ġhaving": 2347,
      "Ġphys": 2348,
      "Ġdeveloped": 2349,
      "Ġ2013": 2350,
      "Ġnext": 2351,
      "duced": 2352,
      "Ġmiss": 2353,
      "ming": 2354,
      "abor": 2355,
      "Ġteams": 2356,
      "Ġdeaths": 2357,
      "de": 2358,
      "ĠâĢľ": 2359,
      "=#": 2360,
      "ĠCath": 2361,
      "Ġcaus": 2362,
      "ĠPal": 2363,
      "lement": 2364,
      "Ġtw": 2365,
      "Ġinvest": 2366,
      "ĠJos": 2367,
      "ĠPat": 2368,
      "arth": 2369,
      "atives": 2370,
      "Ġmale": 2371,
      "arliament": 2372,
      "Ġcame": 2373,
      "):": 2374,
      "ittle": 2375,
      "ĠPresident": 2376,
      "istic": 2377,
      "berg": 2378,
      "Ġmodern": 2379,
      "Ġvoc": 2380,
      "field": 2381,
      "Ġindepend": 2382,
      "ka": 2383,
      "ĠGod": 2384,
      "ĠNe": 2385,
      "Ġ2024": 2386,
      "ump": 2387,
      "ells": 2388,
      "Ġenc": 2389,
      "ume": 2390,
      "endance": 2391,
      "Ġbas": 2392,
      "Ġconsidered": 2393,
      "aterial": 2394,
      "ither": 2395,
      "Ġpoint": 2396,
      "atural": 2397,
      "reland": 2398,
      "CA": 2399,
      "ĠLaw": 2400,
      "Ġside": 2401,
      "ĠArch": 2402,
      "rael": 2403,
      "Ġperforman": 2404,
      "ĠMark": 2405,
      "Ġfocus": 2406,
      "ister": 2407,
      "Ġcapt": 2408,
      "ishing": 2409,
      "Ġdi": 2410,
      "Ġservices": 2411,
      "Ġhig": 2412,
      "Ġepis": 2413,
      "Ġrac": 2414,
      "Ġfull": 2415,
      "ĠMex": 2416,
      "iple": 2417,
      "ergy": 2418,
      "wh": 2419,
      "ĠMy": 2420,
      "Ġinformation": 2421,
      "iography": 2422,
      "Ġ1999": 2423,
      "ĠTo": 2424,
      "Ġmillion": 2425,
      "34": 2426,
      "Ġindividual": 2427,
      "ĠExternal": 2428,
      "Ġbooks": 2429,
      "itte": 2430,
      "rang": 2431,
      "Ġmoved": 2432,
      "rem": 2433,
      "ĠOlymp": 2434,
      "Ġdoc": 2435,
      "55": 2436,
      "Ġfew": 2437,
      "ĠGroup": 2438,
      "ĠHall": 2439,
      "Ġhold": 2440,
      "Ġmot": 2441,
      "idence": 2442,
      "gcolor": 2443,
      "Ġpolitician": 2444,
      "ending": 2445,
      "ĠBlack": 2446,
      "ĠTur": 2447,
      "ĠSing": 2448,
      "ummary": 2449,
      "ĠZeal": 2450,
      "Ġbody": 2451,
      "Ġmodel": 2452,
      "Ġet": 2453,
      "Ġoffer": 2454,
      "ĠBra": 2455,
      "udd": 2456,
      "icles": 2457,
      "Ġ22": 2458,
      "Ġ2015": 2459,
      "ĠJe": 2460,
      "Ġrelig": 2461,
      "ĠJew": 2462,
      "Ġgreat": 2463,
      "rish": 2464,
      "ware": 2465,
      "Ġexist": 2466,
      "ĠSociety": 2467,
      "Ġgrow": 2468,
      "ĠZealand": 2469,
      "Ġpresident": 2470,
      "Ġage": 2471,
      "uit": 2472,
      "Ġwin": 2473,
      "Ġdev": 2474,
      "bert": 2475,
      "isl": 2476,
      "Ġ23": 2477,
      "unt": 2478,
      "ĠRecords": 2479,
      "atter": 2480,
      "str": 2481,
      "ĠVir": 2482,
      "ĠFirst": 2483,
      "'t": 2484,
      "ĠHen": 2485,
      "Ġsouth": 2486,
      "vey": 2487,
      "ential": 2488,
      "Ġfilms": 2489,
      "ique": 2490,
      "ĠAccording": 2491,
      "Ġ27": 2492,
      "Ġhowever": 2493,
      "ĠChristian": 2494,
      "Ġwriter": 2495,
      "ston": 2496,
      "ĠDem": 2497,
      "ĠSim": 2498,
      "Ġrace": 2499,
      "ĠRobert": 2500,
      "Ġareas": 2501,
      "Ġcoll": 2502,
      "gen": 2503,
      "Ġsystems": 2504,
      "iles": 2505,
      "Äģ": 2506,
      "vironment": 2507,
      "time": 2508,
      "Ġlow": 2509,
      "Ġ#\"": 2510,
      "Ġdays": 2511,
      "usical": 2512,
      "rote": 2513,
      "Ġdest": 2514,
      "ĠScott": 2515,
      "ning": 2516,
      "ĠSome": 2517,
      "Sc": 2518,
      "Ġ186": 2519,
      "Ġ2017": 2520,
      "ĠCompany": 2521,
      "itive": 2522,
      "ĠSal": 2523,
      "Ġder": 2524,
      "Ġmy": 2525,
      "ida": 2526,
      "ways": 2527,
      "Ġattack": 2528,
      "ĠRoyal": 2529,
      "ges": 2530,
      "Ġdiv": 2531,
      "||": 2532,
      "ĠAfrica": 2533,
      "II": 2534,
      "ederal": 2535,
      "eph": 2536,
      "Ġavail": 2537,
      "Ġwid": 2538,
      "ĠPe": 2539,
      "Ġelection": 2540,
      "ource": 2541,
      "Ġbrother": 2542,
      "Ġcompanies": 2543,
      "Ġ2018": 2544,
      "ĠMary": 2545,
      "ĠRoad": 2546,
      "unicip": 2547,
      "ĠIreland": 2548,
      "ĠSl": 2549,
      "Ġgrad": 2550,
      "Ġfriend": 2551,
      "Ġpriv": 2552,
      "aughter": 2553,
      "gar": 2554,
      "urity": 2555,
      "Ġalbums": 2556,
      "ĠJapanese": 2557,
      "Ġ1980": 2558,
      "Ġhow": 2559,
      "gin": 2560,
      "Ġleader": 2561,
      "ĠPan": 2562,
      "ĠThomas": 2563,
      "play": 2564,
      "ĠPri": 2565,
      "Ġtype": 2566,
      "Ġless": 2567,
      "ĠUK": 2568,
      "Ġoffic": 2569,
      "...": 2570,
      "ades": 2571,
      "ĠGr": 2572,
      "ĠLouis": 2573,
      "47": 2574,
      "estival": 2575,
      "Ġtransl": 2576,
      "Ġbgcolor": 2577,
      "epar": 2578,
      "ably": 2579,
      "ĠOther": 2580,
      "ĠVol": 2581,
      "Ġ29": 2582,
      "ached": 2583,
      "asc": 2584,
      "ificant": 2585,
      "57": 2586,
      "iting": 2587,
      "rel": 2588,
      "tar": 2589,
      "erc": 2590,
      "Ġroad": 2591,
      "uter": 2592,
      "ellow": 2593,
      "aker": 2594,
      "Ġothers": 2595,
      "Ġmedia": 2596,
      "ĠSam": 2597,
      "atory": 2598,
      "Ġimportant": 2599,
      "ĠProv": 2600,
      "Ġfund": 2601,
      "roll": 2602,
      "back": 2603,
      "ĠMiss": 2604,
      "Category": 2605,
      "Ġ2023": 2606,
      "date": 2607,
      "Ġtimes": 2608,
      "aign": 2609,
      "Ġannounced": 2610,
      "Ġliter": 2611,
      "Ġbelie": 2612,
      "ula": 2613,
      "mit": 2614,
      "ĠMac": 2615,
      "Ġcirc": 2616,
      "Ġvari": 2617,
      "vert": 2618,
      "ilities": 2619,
      "Ġphot": 2620,
      "Ġfe": 2621,
      "ĠMet": 2622,
      "ĠAcadem": 2623,
      "Ġpoints": 2624,
      "People": 2625,
      "Ġemploy": 2626,
      "Ġsongs": 2627,
      "ĠMichael": 2628,
      "Ġwent": 2629,
      "ĠSer": 2630,
      "ĠApp": 2631,
      "ror": 2632,
      "Ġ2020": 2633,
      "ashington": 2634,
      "Ġmaterial": 2635,
      "ocr": 2636,
      "ĠTor": 2637,
      "Ġprofessional": 2638,
      "km": 2639,
      "88": 2640,
      "ĠSur": 2641,
      "Ġformed": 2642,
      "TV": 2643,
      "RE": 2644,
      "Ġrail": 2645,
      "Ġdirector": 2646,
      "Ġz": 2647,
      "ĠMont": 2648,
      "Ġfurther": 2649,
      "Ġkey": 2650,
      "Ġ2019": 2651,
      "99": 2652,
      "ĠRussian": 2653,
      "Ã¤": 2654,
      "Ġmarket": 2655,
      "ills": 2656,
      "oul": 2657,
      "Ġaccess": 2658,
      "place": 2659,
      "Ġmeet": 2660,
      "****": 2661,
      "Ġ2022": 2662,
      "ĠWestern": 2663,
      "Ġguitar": 2664,
      "ini": 2665,
      "ĠTex": 2666,
      "burg": 2667,
      "here": 2668,
      "Ġins": 2669,
      "gress": 2670,
      "Ġparty": 2671,
      "Ġstudy": 2672,
      "Ġren": 2673,
      "ĠTra": 2674,
      "Ġlive": 2675,
      "Ġide": 2676,
      "Ġtotal": 2677,
      "Ġsignificant": 2678,
      "Ġsepar": 2679,
      "iers": 2680,
      "Ġmethod": 2681,
      "hi": 2682,
      "Ġcontinued": 2683,
      "ements": 2684,
      "ĠIsrael": 2685,
      "Ġanim": 2686,
      "ude": 2687,
      "ĠÐ": 2688,
      "Ġbecom": 2689,
      "cle": 2690,
      "yp": 2691,
      "ĠLeg": 2692,
      "anding": 2693,
      ",\"": 2694,
      "Ġrecorded": 2695,
      "Ġhealth": 2696,
      "wood": 2697,
      "rd": 2698,
      "Ġconduct": 2699,
      "ĠAlex": 2700,
      "ĠCenter": 2701,
      "ĠIsland": 2702,
      "Ġavailable": 2703,
      "ĠCro": 2704,
      "Ġreported": 2705,
      "Am": 2706,
      "66": 2707,
      "Ġschools": 2708,
      "ceed": 2709,
      "ĠPet": 2710,
      "ĠDon": 2711,
      "Ġstates": 2712,
      "ĠTV": 2713,
      "ria": 2714,
      "ĠRepublic": 2715,
      "ictor": 2716,
      "ĠMad": 2717,
      "ĠChe": 2718,
      "ĠPeter": 2719,
      "ĠBen": 2720,
      "imately": 2721,
      "Ġviol": 2722,
      "ĠItal": 2723,
      "ems": 2724,
      "Ġtrack": 2725,
      "43": 2726,
      "Ġrock": 2727,
      "ĠGreen": 2728,
      "Ġcurrent": 2729,
      "igital": 2730,
      "roy": 2731,
      "atre": 2732,
      "Ġopened": 2733,
      "rey": 2734,
      "Ġgood": 2735,
      "math": 2736,
      "ittee": 2737,
      "ĠTom": 2738,
      "ender": 2739,
      "Pro": 2740,
      "Ġten": 2741,
      "ointed": 2742,
      "Ġship": 2743,
      "azine": 2744,
      "Ġhimself": 2745,
      "Ġstarted": 2746,
      "ĠYou": 2747,
      "ĠWil": 2748,
      "ĠAngel": 2749,
      "kn": 2750,
      "aves": 2751,
      "Ġking": 2752,
      "ĠRob": 2753,
      "type": 2754,
      "53": 2755,
      "order": 2756,
      "ĠInter": 2757,
      "ĠChina": 2758,
      "itch": 2759,
      "ani": 2760,
      "ĠPublic": 2761,
      "ids": 2762,
      "Ġlength": 2763,
      "Ġintroduced": 2764,
      "Ġmean": 2765,
      "ving": 2766,
      "ĠCentral": 2767,
      "ĠSte": 2768,
      "ĠEmp": 2769,
      "Ġ2021": 2770,
      "Ġfail": 2771,
      "Ġhalf": 2772,
      "ĠWhile": 2773,
      "ecutive": 2774,
      "ĠSen": 2775,
      "ado": 2776,
      "Ġdecl": 2777,
      "Ġkilled": 2778,
      "Ġworked": 2779,
      "Ġfunction": 2780,
      "Ġwrote": 2781,
      "Ġfem": 2782,
      "olk": 2783,
      "olf": 2784,
      "ressed": 2785,
      "ĠGreat": 2786,
      "Ġ100": 2787,
      "Ġ1970": 2788,
      "Ġce": 2789,
      "ĠCatholic": 2790,
      "Ġarchitect": 2791,
      "Ġbi": 2792,
      "ĠWashington": 2793,
      "Ġlaun": 2794,
      "Ġbase": 2795,
      "Ġaddition": 2796,
      "ufact": 2797,
      "atin": 2798,
      "ĠFlor": 2799,
      "ĠClub": 2800,
      "iding": 2801,
      "ĠCharles": 2802,
      "ĠDel": 2803,
      "Ġgoals": 2804,
      "ura": 2805,
      "ĠTer": 2806,
      "Ġtreat": 2807,
      "Ġacqu": 2808,
      "Ġarg": 2809,
      "ĠGold": 2810,
      "ees": 2811,
      "Ġ1997": 2812,
      "Ġground": 2813,
      "Ġincludes": 2814,
      "ada": 2815,
      "Ġlight": 2816,
      "ctor": 2817,
      "Ġ1996": 2818,
      "ĠHam": 2819,
      "ĠInstitute": 2820,
      "ducation": 2821,
      "ĠIran": 2822,
      "Ġhon": 2823,
      "head": 2824,
      "ĠDo": 2825,
      "eck": 2826,
      "olit": 2827,
      "Eng": 2828,
      "icy": 2829,
      "Ġforces": 2830,
      "mar": 2831,
      "oms": 2832,
      "Ġstrong": 2833,
      "lam": 2834,
      "oice": 2835,
      "Ġlearn": 2836,
      "ĠBu": 2837,
      "ttps": 2838,
      "ift": 2839,
      "lor": 2840,
      "Ġtest": 2841,
      "Ġtro": 2842,
      "Living": 2843,
      "']": 2844,
      "ĠFranc": 2845,
      "par": 2846,
      "ĠMos": 2847,
      "umni": 2848,
      "Ġcountries": 2849,
      "NA": 2850,
      "ĠSpanish": 2851,
      "89": 2852,
      "Ġvillage": 2853,
      "Ġimage": 2854,
      "32": 2855,
      "title": 2856,
      "ĠDan": 2857,
      "Ġjournal": 2858,
      "elling": 2859,
      "Ġmid": 2860,
      "based": 2861,
      "ĠRichard": 2862,
      "ĠDay": 2863,
      "Ġusually": 2864,
      "lim": 2865,
      "chol": 2866,
      "emor": 2867,
      "Ġchurch": 2868,
      "ĠDepartment": 2869,
      "face": 2870,
      "Ġcross": 2871,
      "ĠTexas": 2872,
      "otland": 2873,
      "Ġtog": 2874,
      "enced": 2875,
      "asket": 2876,
      "Ġfire": 2877,
      "Ġpage": 2878,
      "ĠPak": 2879,
      "ger": 2880,
      "cy": 2881,
      "Ġwife": 2882,
      "Ġmeas": 2883,
      "hood": 2884,
      "31": 2885,
      "Ġfree": 2886,
      "Ġtogether": 2887,
      "ona": 2888,
      "Ġcompos": 2889,
      "ibrary": 2890,
      "br": 2891,
      "Ġresults": 2892,
      "ĠBut": 2893,
      "Ġcost": 2894,
      "Ġlost": 2895,
      "ĠMel": 2896,
      "za": 2897,
      "Ġcivil": 2898,
      "inese": 2899,
      "Ġplan": 2900,
      "ĠYear": 2901,
      "54": 2902,
      "Ġyou": 2903,
      "iÄ": 2904,
      "Ġimpro": 2905,
      "Ġ1995": 2906,
      "Ġrelease": 2907,
      "tic": 2908,
      "nel": 2909,
      "Ġcharacters": 2910,
      "Ġwik": 2911,
      "ĠAfrican": 2912,
      "ĠLine": 2913,
      "ensive": 2914,
      "ends": 2915,
      "_{": 2916,
      "unk": 2917,
      "Ġrights": 2918,
      "Ġattempt": 2919,
      "org": 2920,
      "Ġsym": 2921,
      "Ġfig": 2922,
      "annel": 2923,
      "sych": 2924,
      "Ġsound": 2925,
      "cer": 2926,
      "ĠBest": 2927,
      "arily": 2928,
      "ĠCarol": 2929,
      "Ġspace": 2930,
      "Ġ134": 2931,
      "Ġdesigned": 2932,
      "wiki": 2933,
      "Ġmother": 2934,
      "rest": 2935,
      "Ġproble": 2936,
      "Ġcy": 2937,
      "ception": 2938,
      "ĠItalian": 2939,
      "chan": 2940,
      "ĠGrand": 2941,
      "ĠCong": 2942,
      "Ġjoined": 2943,
      "Ġappeared": 2944,
      "iqu": 2945,
      "Ġpress": 2946,
      "Ġscore": 2947,
      "Ġseen": 2948,
      "Ġ1994": 2949,
      "Ġcourt": 2950,
      "Ġradio": 2951,
      "dis": 2952,
      "Ġ+": 2953,
      "Color": 2954,
      "189": 2955,
      "Ġmaking": 2956,
      "writ": 2957,
      "iff": 2958,
      ".)": 2959,
      "Ġgold": 2960,
      "stitution": 2961,
      "Ġrespons": 2962,
      "ĠGo": 2963,
      "Ġindic": 2964,
      "ĠRev": 2965,
      "SA": 2966,
      "ĠDes": 2967,
      "aching": 2968,
      "asing": 2969,
      "Ġvict": 2970,
      "Åį": 2971,
      "ĠCons": 2972,
      "Ġdeg": 2973,
      "Ġpur": 2974,
      "Ġ1992": 2975,
      "ilver": 2976,
      "icago": 2977,
      "Ġnever": 2978,
      "Ġeither": 2979,
      "Ġstri": 2980,
      "Ġsugg": 2981,
      "Ġreb": 2982,
      "itext": 2983,
      "eep": 2984,
      "ĠMod": 2985,
      "Ġpoet": 2986,
      "oma": 2987,
      "alls": 2988,
      "Ġcompleted": 2989,
      "most": 2990,
      "airs": 2991,
      "Ġknow": 2992,
      "left": 2993,
      "Ġassist": 2994,
      "Ġill": 2995,
      "SI": 2996,
      "ircraft": 2997,
      "ota": 2998,
      "oviet": 2999,
      "Ġwikitext": 3000,
      "Ġworking": 3001,
      "och": 3002,
      "ranch": 3003,
      "bserv": 3004,
      "Ġcampaign": 3005,
      "Ġcreat": 3006,
      "ental": 3007,
      "86": 3008,
      "Ġrather": 3009,
      "ands": 3010,
      "iation": 3011,
      "Ġplat": 3012,
      "Ġearl": 3013,
      "Ġalthough": 3014,
      "Ġassociated": 3015,
      "ios": 3016,
      "Ġmarried": 3017,
      "anded": 3018,
      "ĠVirgin": 3019,
      "ita": 3020,
      "Ġtaken": 3021,
      "anted": 3022,
      "Ġagre": 3023,
      "known": 3024,
      "Ġorganiz": 3025,
      "ometimes": 3026,
      "Ġapplic": 3027,
      "Pl": 3028,
      "Ġ(\"": 3029,
      "ĠAcademy": 3030,
      "chie": 3031,
      "put": 3032,
      "ĠRegulations": 3033,
      "ipl": 3034,
      "ector": 3035,
      "duction": 3036,
      "ĠMinister": 3037,
      "Ġcolor": 3038,
      "Ġfront": 3039,
      "Ġmatch": 3040,
      "Ġer": 3041,
      "Ġpos": 3042,
      "uz": 3043,
      "ĠFrank": 3044,
      "Ġobject": 3045,
      "Ġcontribut": 3046,
      "Ġfeatures": 3047,
      "ishop": 3048,
      "Ġsubject": 3049,
      "Ġ1960": 3050,
      "Ġ['": 3051,
      "Ġperformed": 3052,
      "ecess": 3053,
      "Ġperformance": 3054,
      "ged": 3055,
      "asketball": 3056,
      "ĠMus": 3057,
      "Ġestablishments": 3058,
      "gy": 3059,
      "Ġcour": 3060,
      "Ġche": 3061,
      "Ġaud": 3062,
      "Ġsit": 3063,
      "Ġpast": 3064,
      "Ġsports": 3065,
      "Ġreturned": 3066,
      "pts": 3067,
      "Ġreview": 3068,
      "merc": 3069,
      "inner": 3070,
      "Ġdocument": 3071,
      "ĠJust": 3072,
      "ores": 3073,
      "ĠSaint": 3074,
      "Ġhom": 3075,
      "ĠTechn": 3076,
      "rig": 3077,
      "Ġjud": 3078,
      "Ġtit": 3079,
      "ras": 3080,
      "Ġdou": 3081,
      "embly": 3082,
      "Sp": 3083,
      "ĠWhite": 3084,
      "ĠDirect": 3085,
      "ought": 3086,
      "ply": 3087,
      "uments": 3088,
      "ĠMuseum": 3089,
      "oted": 3090,
      "Ġdaughter": 3091,
      "itation": 3092,
      "reme": 3093,
      ");": 3094,
      "ĠBill": 3095,
      "ription": 3096,
      "Ġrelated": 3097,
      "ĠEmpire": 3098,
      "min": 3099,
      "Ġconsist": 3100,
      "Ġinvolved": 3101,
      "aught": 3102,
      "ny": 3103,
      "Ġmovement": 3104,
      "ĠBur": 3105,
      "Ġoriginally": 3106,
      "Ġfootballer": 3107,
      "Ġoffice": 3108,
      "uan": 3109,
      "Ġweek": 3110,
      "75": 3111,
      "endment": 3112,
      "ĠSmith": 3113,
      "Ġblack": 3114,
      "uke": 3115,
      "ordin": 3116,
      "ĠArab": 3117,
      "nat": 3118,
      "Ġaway": 3119,
      "erous": 3120,
      "used": 3121,
      "Ġsex": 3122,
      "Ġconstruction": 3123,
      "ĠMo": 3124,
      "porary": 3125,
      "42": 3126,
      "ams": 3127,
      "Ġthroughout": 3128,
      "70": 3129,
      "pect": 3130,
      "ĠPakistan": 3131,
      "imate": 3132,
      "tegr": 3133,
      "Ġ1991": 3134,
      "Ġsqu": 3135,
      "ĠBay": 3136,
      "Ġput": 3137,
      "ĠInc": 3138,
      "Ð°": 3139,
      "Ġelected": 3140,
      "ĠParis": 3141,
      "incip": 3142,
      "Ġchange": 3143,
      "ribution": 3144,
      "ĠVictor": 3145,
      "Ġleast": 3146,
      "ua": 3147,
      "ĠRussia": 3148,
      "Ġqual": 3149,
      "Ġmanufact": 3150,
      "Ġmultiple": 3151,
      "Summary": 3152,
      "yr": 3153,
      "ples": 3154,
      "ols": 3155,
      "Ġdebut": 3156,
      "ĠSeries": 3157,
      "Ġlocation": 3158,
      "Ġoccup": 3159,
      "ĠMass": 3160,
      "Ġopt": 3161,
      "iences": 3162,
      "Ġtraining": 3163,
      "Ġfeatured": 3164,
      "ĠJim": 3165,
      "ĠRail": 3166,
      "Ġtraditional": 3167,
      "Ġpred": 3168,
      "ĠNot": 3169,
      "ĠKore": 3170,
      "action": 3171,
      "ĠParliament": 3172,
      "Ġfollowed": 3173,
      "ĠGeorg": 3174,
      "Ġser": 3175,
      "Ġfrequ": 3176,
      "ĠSwed": 3177,
      "\")": 3178,
      "Ġkm": 3179,
      "Ġregard": 3180,
      "Ġge": 3181,
      "Ġhous": 3182,
      "ises": 3183,
      "Ã³n": 3184,
      "ĠSince": 3185,
      "ĠRh": 3186,
      "rial": 3187,
      "ression": 3188,
      "Ġentire": 3189,
      "ĠHenry": 3190,
      "icro": 3191,
      "ĠMexico": 3192,
      "ĠChicago": 3193,
      "Ġ1993": 3194,
      "alys": 3195,
      "etic": 3196,
      "Ġanc": 3197,
      "Ġreading": 3198,
      "80": 3199,
      "arter": 3200,
      "Ġartist": 3201,
      "rich": 3202,
      "oral": 3203,
      "ĠRou": 3204,
      "ĠCamp": 3205,
      "2006": 3206,
      "ospital": 3207,
      "Ġi": 3208,
      "arr": 3209,
      "ĠSecond": 3210,
      "ires": 3211,
      "Ġartists": 3212,
      "41": 3213,
      "Ġphil": 3214,
      "change": 3215,
      "uture": 3216,
      "Ġleading": 3217,
      "Ġsyn": 3218,
      "Ġsinger": 3219,
      "igr": 3220,
      "tain": 3221,
      "enth": 3222,
      "ĠOper": 3223,
      "Ġupon": 3224,
      "Ġtourn": 3225,
      "clus": 3226,
      "Ġpot": 3227,
      "Ġprovide": 3228,
      "ĠCat": 3229,
      "Ġfar": 3230,
      "Ġpers": 3231,
      "ĠAlthough": 3232,
      "Ġonce": 3233,
      "Ġvocals": 3234,
      "ockey": 3235,
      "List": 3236,
      "Ġorganization": 3237,
      "ĠCommun": 3238,
      "Con": 3239,
      "Ġschol": 3240,
      "ĠEv": 3241,
      "ĠSant": 3242,
      "rup": 3243,
      "Ġimm": 3244,
      "isions": 3245,
      "ola": 3246,
      "inter": 3247,
      "ĠEducation": 3248,
      "Ġsubsequ": 3249,
      "ĠIrish": 3250,
      "ĠGra": 3251,
      "60": 3252,
      "Ġsoft": 3253,
      "ocation": 3254,
      "ixed": 3255,
      "ĠChinese": 3256,
      "Ġrange": 3257,
      "ĠJer": 3258,
      "ĠLem": 3259,
      "Ġcal": 3260,
      "Ġcentral": 3261,
      "Ġedition": 3262,
      "RA": 3263,
      "ĠPenn": 3264,
      "ibl": 3265,
      "Ġabove": 3266,
      "Ġ31": 3267,
      "----": 3268,
      "ĠÎ": 3269,
      "ette": 3270,
      "ked": 3271,
      "Ġnetwork": 3272,
      "ĠService": 3273,
      "rev": 3274,
      "Ġcollect": 3275,
      "Ġculture": 3276,
      "ĠFound": 3277,
      "Ġwhose": 3278,
      "Ġ!": 3279,
      "Ġprivate": 3280,
      "Ġesp": 3281,
      "Ġlabel": 3282,
      "ĠKn": 3283,
      ".&": 3284,
      "Ġcast": 3285,
      "ortSummary": 3286,
      "Ġ50": 3287,
      "Ġhard": 3288,
      "rim": 3289,
      "ĠMa": 3290,
      "medi": 3291,
      "ĠStadium": 3292,
      "Ġmass": 3293,
      "ĠHill": 3294,
      "Ġrelationship": 3295,
      "arian": 3296,
      "Ã¨": 3297,
      "Ġparts": 3298,
      "ugby": 3299,
      "ĠHealth": 3300,
      "Ġappointed": 3301,
      "Ġstandard": 3302,
      "New": 3303,
      "Ġenvironment": 3304,
      "Ġcur": 3305,
      "Cl": 3306,
      "ĠSir": 3307,
      "ĠTurk": 3308,
      "Ġindustry": 3309,
      "idents": 3310,
      "ĠÂ": 3311,
      "mercial": 3312,
      "ambig": 3313,
      "utch": 3314,
      "Ġvir": 3315,
      "Ġnatural": 3316,
      "sk": 3317,
      "Ġbroadcast": 3318,
      "ension": 3319,
      "aged": 3320,
      "aval": 3321,
      "comp": 3322,
      "Ġterrit": 3323,
      "gl": 3324,
      "Ġclos": 3325,
      "itz": 3326,
      "ĠRock": 3327,
      "Ġdam": 3328,
      "ĠAv": 3329,
      "Ġshows": 3330,
      "Ġrespect": 3331,
      "Ð¾": 3332,
      "Ġprovided": 3333,
      "ĠCast": 3334,
      "Ġcompetition": 3335,
      "De": 3336,
      "Ġfight": 3337,
      "Ġâ": 3338,
      "Ġ{": 3339,
      "Ġorigin": 3340,
      "Ġwhite": 3341,
      "fic": 3342,
      "Ġ1989": 3343,
      "road": 3344,
      "ĠWales": 3345,
      "ecially": 3346,
      "acing": 3347,
      "Ġleague": 3348,
      "plement": 3349,
      "ĠPo": 3350,
      "Ġscience": 3351,
      "cher": 3352,
      "Ġtravel": 3353,
      "Ġflow": 3354,
      "Ġuses": 3355,
      "mark": 3356,
      "Ġpossible": 3357,
      "Ġself": 3358,
      "Ind": 3359,
      "Ġreplaced": 3360,
      "pin": 3361,
      "Ġrural": 3362,
      "oid": 3363,
      "ĠCarl": 3364,
      "Ġsuccessful": 3365,
      "Ġdeterm": 3366,
      "Ġacadem": 3367,
      "ulated": 3368,
      "shire": 3369,
      "obal": 3370,
      "ĠHistor": 3371,
      "utes": 3372,
      "ĠNorthern": 3373,
      "iÄĩ": 3374,
      "Ġcust": 3375,
      "Ġ***": 3376,
      "erve": 3377,
      "Ġcou": 3378,
      "Ġinstead": 3379,
      "Ġsem": 3380,
      "ĠUnd": 3381,
      "ambiguation": 3382,
      "\"|": 3383,
      "ibility": 3384,
      "Ġdiscover": 3385,
      "not": 3386,
      "hold": 3387,
      "Ġalumni": 3388,
      "Ġlegal": 3389,
      "Ġtechnology": 3390,
      "ĠCommission": 3391,
      "lements": 3392,
      "eign": 3393,
      "ĠSoviet": 3394,
      "Ġmap": 3395,
      "ĠSk": 3396,
      "ingu": 3397,
      "ĠIf": 3398,
      "ĠSub": 3399,
      "ih": 3400,
      "osoph": 3401,
      "stra": 3402,
      "wa": 3403,
      "Ġnames": 3404,
      "Ġsurv": 3405,
      "Ġinterest": 3406,
      "69": 3407,
      "Ġcertain": 3408,
      "ĠEr": 3409,
      "oke": 3410,
      "ĠGovernment": 3411,
      "ein": 3412,
      "ultural": 3413,
      "Ġpaint": 3414,
      "ĠMr": 3415,
      "division": 3416,
      "ĠTown": 3417,
      "ĠLife": 3418,
      "zil": 3419,
      "Ġsection": 3420,
      "ĠIII": 3421,
      "Ġbuildings": 3422,
      "ancial": 3423,
      "Ġpay": 3424,
      "Ġcop": 3425,
      "Ġexam": 3426,
      "ros": 3427,
      "ĠBrown": 3428,
      "oo": 3429,
      "ĠWomen": 3430,
      "ylvan": 3431,
      "Ġmonths": 3432,
      "Ġindependent": 3433,
      "Ġveh": 3434,
      "Ġpractice": 3435,
      "thlet": 3436,
      "Ġachie": 3437,
      "iy": 3438,
      "Ġitself": 3439,
      "asons": 3440,
      "Ġcapital": 3441,
      "edic": 3442,
      "stadium": 3443,
      "ĠLake": 3444,
      "irit": 3445,
      "Ġeventually": 3446,
      "aches": 3447,
      "Ġscient": 3448,
      "85": 3449,
      "like": 3450,
      "col": 3451,
      "rought": 3452,
      "Ġtax": 3453,
      "Ġregular": 3454,
      "refer": 3455,
      "igned": 3456,
      "board": 3457,
      "ounter": 3458,
      "abb": 3459,
      "www": 3460,
      "Ġnovels": 3461,
      "Ġobserv": 3462,
      "win": 3463,
      "Ġlargest": 3464,
      "edia": 3465,
      "ĠScience": 3466,
      "disambiguation": 3467,
      "ients": 3468,
      "amily": 3469,
      "isher": 3470,
      "ĠMur": 3471,
      "istics": 3472,
      "Ġstructure": 3473,
      "ĠIts": 3474,
      "Ġden": 3475,
      "language": 3476,
      "oys": 3477,
      "rast": 3478,
      "anda": 3479,
      "oper": 3480,
      "ĠMil": 3481,
      "ĠOld": 3482,
      "Ġget": 3483,
      "ĠGreek": 3484,
      "Ġ---": 3485,
      "Ġsuper": 3486,
      "Ġtour": 3487,
      "Ġmanagement": 3488,
      "Ġpolice": 3489,
      "Ġneigh": 3490,
      "Ġspe": 3491,
      "Ġdate": 3492,
      "ĠMost": 3493,
      "ano": 3494,
      "ĠMer": 3495,
      "Ġmeans": 3496,
      "Ġcases": 3497,
      "light": 3498,
      "ĠMartin": 3499,
      "ĠAnn": 3500,
      "ĠStar": 3501,
      "Ġemer": 3502,
      "Ġlower": 3503,
      "ĠSun": 3504,
      "opp": 3505,
      "Ġproducer": 3506,
      "Ġcontract": 3507,
      "Ġdiscuss": 3508,
      "Ġapprox": 3509,
      "Ġcat": 3510,
      "war": 3511,
      "Ġlik": 3512,
      "racks": 3513,
      "Ġquest": 3514,
      "ĠLand": 3515,
      "87": 3516,
      "65": 3517,
      "Ġsometimes": 3518,
      "Ġplann": 3519,
      "ĠPlay": 3520,
      "ĠFilm": 3521,
      "Ġinvestig": 3522,
      "Ġreligious": 3523,
      "ĠLab": 3524,
      "ulture": 3525,
      "ĠItaly": 3526,
      "anced": 3527,
      "Ġaction": 3528,
      "Ġnewsp": 3529,
      "CC": 3530,
      "Ġable": 3531,
      "ĠSqu": 3532,
      "Ġboard": 3533,
      "itiz": 3534,
      "iano": 3535,
      "iana": 3536,
      "Ġgener": 3537,
      "Ġrequired": 3538,
      "andid": 3539,
      "Ġactor": 3540,
      "Ġwriters": 3541,
      "Ġvia": 3542,
      "FA": 3543,
      "ien": 3544,
      "Ġ1988": 3545,
      "Ġhor": 3546,
      "ĠResearch": 3547,
      "inals": 3548,
      "Ġoperations": 3549,
      "ĠArts": 3550,
      "RS": 3551,
      "Ġforce": 3552,
      "bon": 3553,
      "Ġanti": 3554,
      "ĠClass": 3555,
      "Ġ*\"": 3556,
      "Ġmusical": 3557,
      "Ġseven": 3558,
      "Ph": 3559,
      "Ġmur": 3560,
      "irm": 3561,
      "Ġstadium": 3562,
      "ĠCap": 3563,
      "eated": 3564,
      "ĠBook": 3565,
      "Ġsus": 3566,
      "forms": 3567,
      "vention": 3568,
      "Ġ1986": 3569,
      "Ġadop": 3570,
      "ĠMen": 3571,
      "Te": 3572,
      "mission": 3573,
      "Ġremained": 3574,
      "ĠTwo": 3575,
      "Ġstage": 3576,
      "ĠSuper": 3577,
      "alysis": 3578,
      "Ġrank": 3579,
      "ĠAwards": 3580,
      "ĠLos": 3581,
      "Ġcomplex": 3582,
      "Ġconcern": 3583,
      "Ġfood": 3584,
      "ĠFin": 3585,
      "90": 3586,
      "bur": 3587,
      "Ġaircraft": 3588,
      "Ġcritic": 3589,
      "illa": 3590,
      "ĠSocial": 3591,
      "Ġepisode": 3592,
      "Ġpen": 3593,
      "inct": 3594,
      "ĠSpec": 3595,
      "ider": 3596,
      "Ġclose": 3597,
      "Ġgirl": 3598,
      "edy": 3599,
      "Ġtrade": 3600,
      "ĠAre": 3601,
      "la": 3602,
      "2000": 3603,
      "ĠForce": 3604,
      "ylvania": 3605,
      "ĠOx": 3606,
      "va": 3607,
      "Ġespecially": 3608,
      "ĠGames": 3609,
      "Ġ40": 3610,
      "ĠIll": 3611,
      "ĠVirginia": 3612,
      "Ġstations": 3613,
      "ĠDef": 3614,
      "attendance": 3615,
      "Ġaccording": 3616,
      "ati": 3617,
      "fit": 3618,
      "iance": 3619,
      "Ġfav": 3620,
      "Ġneg": 3621,
      "ĠRos": 3622,
      "Ġmissing": 3623,
      "Ġmount": 3624,
      "Ġadded": 3625,
      "bury": 3626,
      "Ġstudies": 3627,
      "Ġplant": 3628,
      "Ġnight": 3629,
      "Ġenergy": 3630,
      "ella": 3631,
      "Ġ1987": 3632,
      "da": 3633,
      "Ġeast": 3634,
      "Ġwind": 3635,
      "ĠTem": 3636,
      "ĠJun": 3637,
      "ellig": 3638,
      "{\\": 3639,
      "BA": 3640,
      "ĠJack": 3641,
      "ersey": 3642,
      "ĠColumb": 3643,
      "band": 3644,
      "ĠOl": 3645,
      "ye": 3646,
      "Mar": 3647,
      "Ġ----": 3648,
      "2005": 3649,
      "lying": 3650,
      "ĠIslam": 3651,
      "Ġaltern": 3652,
      "ĠScotland": 3653,
      "Ġ1985": 3654,
      "Ġactive": 3655,
      "Ġawarded": 3656,
      "Ġappears": 3657,
      "orpor": 3658,
      "ĠUp": 3659,
      "Ġstated": 3660,
      "ĠSystem": 3661,
      "igan": 3662,
      "ali": 3663,
      "wan": 3664,
      "isation": 3665,
      "ĠMah": 3666,
      "ĠMatt": 3667,
      "Ġcollection": 3668,
      "SC": 3669,
      "ĠRoute": 3670,
      "Ġword": 3671,
      "bers": 3672,
      "Ġwest": 3673,
      "ums": 3674,
      "anguages": 3675,
      "Ġsaf": 3676,
      "ĠDen": 3677,
      "Ġadministr": 3678,
      "Ġspecific": 3679,
      "Ġissues": 3680,
      "Ġactivities": 3681,
      "Ġreve": 3682,
      "Ġfall": 3683,
      "Ġtheory": 3684,
      "Ġgenerally": 3685,
      "ĠCongress": 3686,
      "Ġoutside": 3687,
      "ĠInt": 3688,
      "Ġord": 3689,
      "Ġhigher": 3690,
      "ĠSpain": 3691,
      "Ġtre": 3692,
      "ĠKar": 3693,
      "ened": 3694,
      "Ġbrought": 3695,
      "United": 3696,
      "ĠJewish": 3697,
      "referee": 3698,
      ".]]": 3699,
      "Ġprograms": 3700,
      "Ġpersonal": 3701,
      "Ġlay": 3702,
      "ĠOut": 3703,
      "aka": 3704,
      "ĠOtt": 3705,
      "ĠMany": 3706,
      "Ġprimary": 3707,
      "Ġesc": 3708,
      "umber": 3709,
      "Å¡": 3710,
      "Ġinstitut": 3711,
      "73": 3712,
      "Ġdom": 3713,
      "Year": 3714,
      "Ġtransport": 3715,
      "Ġdyn": 3716,
      "ĠSol": 3717,
      "Ð¸": 3718,
      "with": 3719,
      "Ġdigital": 3720,
      "Ġeight": 3721,
      "=|": 3722,
      "ĠMot": 3723,
      "king": 3724,
      "ĠLord": 3725,
      "Ġinstr": 3726,
      "Ġven": 3727,
      "ube": 3728,
      "Ġcultural": 3729,
      "ias": 3730,
      "unct": 3731,
      "64": 3732,
      "anks": 3733,
      "ĠJoseph": 3734,
      "Ġtournament": 3735,
      "ĠJud": 3736,
      "iro": 3737,
      "ocratic": 3738,
      "Ġ1979": 3739,
      "Ġpreviously": 3740,
      "ĠDou": 3741,
      "Ġdraw": 3742,
      "Ġbrand": 3743,
      "Ġaccept": 3744,
      "ĠFre": 3745,
      "Ġens": 3746,
      "iger": 3747,
      "oor": 3748,
      "ledge": 3749,
      "Ġeth": 3750,
      "Ġx": 3751,
      "ĠNA": 3752,
      "Ġunit": 3753,
      "ongs": 3754,
      "Ġrad": 3755,
      "FF": 3756,
      "lant": 3757,
      "Ġmunicip": 3758,
      "Ġhar": 3759,
      "encies": 3760,
      "Ġ1950": 3761,
      "Ġrequire": 3762,
      "Ġremov": 3763,
      "Ġball": 3764,
      "Nov": 3765,
      "inary": 3766,
      "ĠFollow": 3767,
      "Ġallowed": 3768,
      "Ġthus": 3769,
      "izing": 3770,
      "SP": 3771,
      "Ġlisted": 3772,
      "Ġdestroy": 3773,
      "ĠLemmon": 3774,
      "Ġexhib": 3775,
      "ĠBob": 3776,
      "retary": 3777,
      "Ġ88": 3778,
      "ĠMat": 3779,
      "sw": 3780,
      "ĠCarolina": 3781,
      "Ġstar": 3782,
      "Ġparticularly": 3783,
      "Ġ)": 3784,
      "ĠFlorida": 3785,
      "Ġ1984": 3786,
      "Ġcut": 3787,
      "Ġpurp": 3788,
      "Ġlog": 3789,
      "Ġtransfer": 3790,
      "Ġtrib": 3791,
      "gent": 3792,
      "CT": 3793,
      "Ġcurrently": 3794,
      "Ġclosed": 3795,
      "2004": 3796,
      "ulf": 3797,
      "Ġunits": 3798,
      "ĠFort": 3799,
      "John": 3800,
      "iant": 3801,
      "Ġarmy": 3802,
      "ulty": 3803,
      "Ġmagazine": 3804,
      "Ġonline": 3805,
      "elled": 3806,
      "Ġintegr": 3807,
      "emporary": 3808,
      "Ġissue": 3809,
      "isk": 3810,
      "Ġwoman": 3811,
      "ĠPeople": 3812,
      "ties": 3813,
      "west": 3814,
      "Ġsay": 3815,
      "Ġdegree": 3816,
      "Ðµ": 3817,
      "Ġdirected": 3818,
      "den": 3819,
      "Ġvalue": 3820,
      "ora": 3821,
      "ĠMin": 3822,
      "ĠProfess": 3823,
      "ils": 3824,
      "ĠJournal": 3825,
      "ĠOver": 3826,
      "ffic": 3827,
      "Ġoccur": 3828,
      "Ġactress": 3829,
      "Ġdefeated": 3830,
      "Ġpain": 3831,
      "Ġlet": 3832,
      "Ġhum": 3833,
      "Ġgave": 3834,
      "Ġcele": 3835,
      "urt": 3836,
      "Ġcommercial": 3837,
      "ĠFred": 3838,
      "ĠEnd": 3839,
      "ections": 3840,
      "ca": 3841,
      "ĠGall": 3842,
      "English": 3843,
      "ĠBet": 3844,
      "Ġsingles": 3845,
      "Ġchampionship": 3846,
      "Ġ1982": 3847,
      "Ġbreak": 3848,
      "ĠLiber": 3849,
      "Ġconfl": 3850,
      "onse": 3851,
      "elves": 3852,
      "aya": 3853,
      "ato": 3854,
      "ĠMill": 3855,
      "ĠBattle": 3856,
      "ĠCommittee": 3857,
      "Ġorganizations": 3858,
      "cel": 3859,
      "ady": 3860,
      "ĠFestival": 3861,
      "Ġchanges": 3862,
      "awa": 3863,
      "agn": 3864,
      "frac": 3865,
      "à¦": 3866,
      "Ġemb": 3867,
      "Ġdu": 3868,
      "ĠMu": 3869,
      "ĠAssembly": 3870,
      "aring": 3871,
      "Ġunion": 3872,
      "ĠEngine": 3873,
      "Notes": 3874,
      "Ġplaced": 3875,
      "Ġbank": 3876,
      "Ġinsp": 3877,
      "Ġver": 3878,
      "Ġcell": 3879,
      "Ġstaff": 3880,
      "Ġeconomic": 3881,
      "arden": 3882,
      "oking": 3883,
      "azz": 3884,
      "ĠFootball": 3885,
      "mond": 3886,
      "Ġcentre": 3887,
      "ĠGar": 3888,
      "ĠEarly": 3889,
      "ĠLatin": 3890,
      "Ġspeed": 3891,
      "ko": 3892,
      "uated": 3893,
      "uty": 3894,
      "TL": 3895,
      "Ġstatus": 3896,
      "oring": 3897,
      "Ġcenter": 3898,
      "sylvania": 3899,
      "well": 3900,
      "Ġinj": 3901,
      "Ġdise": 3902,
      "ĠJo": 3903,
      "Ġlimited": 3904,
      "ready": 3905,
      "ĠAngeles": 3906,
      "Ġloss": 3907,
      "Ġsat": 3908,
      "iginal": 3909,
      "Ġprison": 3910,
      "Ġadditional": 3911,
      "mad": 3912,
      "standing": 3913,
      "esh": 3914,
      "à¥": 3915,
      "Ġnoted": 3916,
      "Ġcollabor": 3917,
      "Ġbattle": 3918,
      "ables": 3919,
      "Ġprior": 3920,
      "',": 3921,
      "ĠHel": 3922,
      "ĠEarth": 3923,
      "68": 3924,
      "Ġsaw": 3925,
      "Ġfoot": 3926,
      "ovo": 3927,
      "ĠBrazil": 3928,
      "ĠBerlin": 3929,
      "ĠJes": 3930,
      "comm": 3931,
      "bol": 3932,
      "Ġarticle": 3933,
      "caps": 3934,
      "Ġtarg": 3935,
      "ĠFollowing": 3936,
      "hest": 3937,
      "ĠPop": 3938,
      "Ġelev": 3939,
      "Ġkeep": 3940,
      "Ġsource": 3941,
      "Ġpurch": 3942,
      "Ġconv": 3943,
      "clubnat": 3944,
      "Ġreferred": 3945,
      "Ġabs": 3946,
      "Ġforms": 3947,
      "ĠUr": 3948,
      "Ġchart": 3949,
      "kins": 3950,
      "Ġsurn": 3951,
      "itors": 3952,
      "ĠAsia": 3953,
      "Ġur": 3954,
      "stant": 3955,
      "state": 3956,
      "ĠElect": 3957,
      "Ġ1976": 3958,
      "Ġpsych": 3959,
      "establ": 3960,
      "overs": 3961,
      "Ġcome": 3962,
      "uclear": 3963,
      "Ġpolicy": 3964,
      "ĠOxford": 3965,
      "Ġproperty": 3966,
      "ao": 3967,
      "hew": 3968,
      "Ġplaces": 3969,
      "ĠOpen": 3970,
      "ĠDis": 3971,
      "ĠWood": 3972,
      "icians": 3973,
      "ĠJul": 3974,
      "Ġterms": 3975,
      "Ġminor": 3976,
      "ĠScottish": 3977,
      "aled": 3978,
      "peror": 3979,
      "Ġcandid": 3980,
      "Ġbeginning": 3981,
      "ĠLong": 3982,
      "ĠJersey": 3983,
      "Ġprincip": 3984,
      "Ġsen": 3985,
      "Ġsequ": 3986,
      "Ġnews": 3987,
      "Ġalmost": 3988,
      "Ġhistorical": 3989,
      "idae": 3990,
      "ĠHow": 3991,
      "Ġcred": 3992,
      "Ġliving": 3993,
      "ĠLove": 3994,
      "Ġ1983": 3995,
      "Ġcoach": 3996,
      "Ġfemale": 3997,
      "ĠWind": 3998,
      "Ġchief": 3999,
      "Ġapproximately": 4000,
      "ĠGal": 4001,
      "Ġearlier": 4002,
      "acher": 4003,
      "Ġmer": 4004,
      "ĠRel": 4005,
      "ĠPortug": 4006,
      "Ġmeaning": 4007,
      "onom": 4008,
      "Ġclubs": 4009,
      "ĠVer": 4010,
      "add": 4011,
      "edd": 4012,
      "ĠSa": 4013,
      "mselves": 4014,
      "à²": 4015,
      "ĠEp": 4016,
      "velopment": 4017,
      "ga": 4018,
      "74": 4019,
      "Ġproducts": 4020,
      "ĠPennsylvania": 4021,
      "Ġaccount": 4022,
      "Ġbass": 4023,
      "Ġbene": 4024,
      "ĠTimes": 4025,
      "asy": 4026,
      "Ġevidence": 4027,
      "ĠPost": 4028,
      "ĠProt": 4029,
      "ĠPubl": 4030,
      "ĠSo": 4031,
      "ĠHa": 4032,
      "Ġlic": 4033,
      "Ġgrand": 4034,
      "Ġeditor": 4035,
      "Ġthemselves": 4036,
      "har": 4037,
      "abel": 4038,
      "Ġcomplet": 4039,
      "tario": 4040,
      "Ġmechan": 4041,
      "Ġchanged": 4042,
      "ronic": 4043,
      "ĠWater": 4044,
      "ero": 4045,
      "inners": 4046,
      "Ġstudent": 4047,
      "ĠBul": 4048,
      "Ġplaying": 4049,
      "Ġprovides": 4050,
      "ĠNews": 4051,
      "Ġcode": 4052,
      "Ġste": 4053,
      "reng": 4054,
      "riage": 4055,
      "alog": 4056,
      "isco": 4057,
      "Ġstrateg": 4058,
      "Ġdetail": 4059,
      "Ġcoast": 4060,
      "Ġwriting": 4061,
      "mann": 4062,
      "Ġcolon": 4063,
      "Ġcomplete": 4064,
      "Ġfuture": 4065,
      "ĠCamb": 4066,
      "ĠCr": 4067,
      "ederation": 4068,
      "ĠCD": 4069,
      "Ġwhom": 4070,
      "Ġtakes": 4071,
      "Ġsoftware": 4072,
      "ĠValley": 4073,
      "ologist": 4074,
      "met": 4075,
      "ĠOlympics": 4076,
      "ĠRadio": 4077,
      "Ġtradition": 4078,
      "Ġnorm": 4079,
      "Ġcle": 4080,
      "Ġ1978": 4081,
      "gian": 4082,
      "igg": 4083,
      "Ġstudio": 4084,
      "Ġ1981": 4085,
      "ima": 4086,
      "ĠInf": 4087,
      "apers": 4088,
      "ĠCam": 4089,
      "ĠThat": 4090,
      "Ġprob": 4091,
      "Ġliterature": 4092,
      "Ġmedical": 4093,
      "ocal": 4094,
      "ja": 4095,
      "Ġ1975": 4096,
      "Ġprem": 4097,
      "Ge": 4098,
      "elt": 4099,
      "ĠDi": 4100,
      "ĠEastern": 4101,
      "ĠAdd": 4102,
      "ampion": 4103,
      "alled": 4104,
      "Ġofficer": 4105,
      "ĠBC": 4106,
      "Ġ1974": 4107,
      "Ġsouthern": 4108,
      "ĠBoard": 4109,
      "Ã¡n": 4110,
      "agement": 4111,
      "ĠWal": 4112,
      "Ġut": 4113,
      "ĠOh": 4114,
      "rying": 4115,
      "hab": 4116,
      "Ã±": 4117,
      "ĠIra": 4118,
      "Ġmission": 4119,
      "Ġtowards": 4120,
      "Ġprec": 4121,
      "67": 4122,
      "ii": 4123,
      "Ġearn": 4124,
      "Ġlaunched": 4125,
      "Ġcontains": 4126,
      "Ġmem": 4127,
      "Ġtoo": 4128,
      "Ġconcept": 4129,
      "IA": 4130,
      "Ġpark": 4131,
      "ĠUnder": 4132,
      "Ġwords": 4133,
      "Ġconditions": 4134,
      "Ġreached": 4135,
      "Ġprote": 4136,
      "Ġsoon": 4137,
      "Ġdefeat": 4138,
      "Ġhttps": 4139,
      "emorial": 4140,
      "pped": 4141,
      "Ġfeature": 4142,
      "ĠFer": 4143,
      "ador": 4144,
      "Ġiniti": 4145,
      "MA": 4146,
      "Ġalready": 4147,
      "ĠExp": 4148,
      "Ġcaused": 4149,
      "ĠBas": 4150,
      "etts": 4151,
      "2007": 4152,
      "yan": 4153,
      "Ġlittle": 4154,
      "ĠLo": 4155,
      "Ġlanguages": 4156,
      "resp": 4157,
      "ĠMiddle": 4158,
      "Ġnorthern": 4159,
      "ĠYoung": 4160,
      "Ġmurder": 4161,
      "eds": 4162,
      "ĠCivil": 4163,
      "ĠTim": 4164,
      "Ġdeal": 4165,
      "onn": 4166,
      "Can": 4167,
      "63": 4168,
      "Ġbehind": 4169,
      "2003": 4170,
      "84": 4171,
      "bit": 4172,
      "Ġtypically": 4173,
      "Ġoil": 4174,
      "Ġisland": 4175,
      "aily": 4176,
      "ĠOntario": 4177,
      "Ġcommunic": 4178,
      "Ġcreate": 4179,
      "Ø§": 4180,
      ";âĢĵ": 4181,
      "house": 4182,
      "ips": 4183,
      "Ġfif": 4184,
      "ĠJones": 4185,
      "Ð½": 4186,
      "ictional": 4187,
      "ervation": 4188,
      "Brit": 4189,
      "illy": 4190,
      "ĠTheir": 4191,
      "ĠLuc": 4192,
      "Ġowned": 4193,
      "Ġmach": 4194,
      "uses": 4195,
      "rown": 4196,
      "Ġdivision": 4197,
      "ĠHon": 4198,
      "Ġlines": 4199,
      "Ġbound": 4200,
      "ĠUSA": 4201,
      "2002": 4202,
      "hens": 4203,
      "uate": 4204,
      "Ġshown": 4205,
      "Ġ1973": 4206,
      "mitted": 4207,
      "Ġthreat": 4208,
      "Ġfederal": 4209,
      "Ġappl": 4210,
      "ĠBritain": 4211,
      "Ġess": 4212,
      "Ġdecided": 4213,
      "no": 4214,
      "ĠSouthern": 4215,
      "Ġforeign": 4216,
      "ken": 4217,
      "Ġconstruct": 4218,
      "lav": 4219,
      "Ġdiffic": 4220,
      "reater": 4221,
      "apter": 4222,
      "inent": 4223,
      "Ġpath": 4224,
      "72": 4225,
      "Ġchall": 4226,
      "Ġrule": 4227,
      "ira": 4228,
      "Ġstep": 4229,
      "oses": 4230,
      "ID": 4231,
      "Ġregional": 4232,
      "Ġsurround": 4233,
      "ĠEdward": 4234,
      "ĠTheatre": 4235,
      "Ġarm": 4236,
      "Ġmodels": 4237,
      "Ġcollege": 4238,
      "gu": 4239,
      "astic": 4240,
      "Ġlonger": 4241,
      "Ġsubdivision": 4242,
      "Ġsom": 4243,
      "tained": 4244,
      "83": 4245,
      "Comp": 4246,
      "Ġmoney": 4247,
      "Ġmakes": 4248,
      "Ġdecision": 4249,
      "Ġfourth": 4250,
      "reference": 4251,
      "ĠBig": 4252,
      "ĠAut": 4253,
      "ĠBank": 4254,
      "Ġsurface": 4255,
      "ules": 4256,
      "chestra": 4257,
      "Ġpattern": 4258,
      "Ġstructures": 4259,
      "Ġwhether": 4260,
      "ĠÅ": 4261,
      "Ġsize": 4262,
      "ĠHot": 4263,
      "ĠDutch": 4264,
      "Ġunivers": 4265,
      "Ġresponse": 4266,
      "burgh": 4267,
      "ĠGood": 4268,
      "Ġcitiz": 4269,
      "ER": 4270,
      "span": 4271,
      "ĠColumbia": 4272,
      "Ġbelow": 4273,
      "Ġreduc": 4274,
      "ĠTri": 4275,
      "Ġpresented": 4276,
      "Ġ1972": 4277,
      "Ġgive": 4278,
      "ĠStep": 4279,
      "report": 4280,
      "Ġgra": 4281,
      "Ġarrang": 4282,
      "Ġrow": 4283,
      "ĠOfficial": 4284,
      "ĠBre": 4285,
      "IS": 4286,
      "hat": 4287,
      "Ġbox": 4288,
      "Ġdiss": 4289,
      "Ã§": 4290,
      "Ġincreased": 4291,
      "ĠPrince": 4292,
      "Ġbur": 4293,
      "ĠHaw": 4294,
      "Ġsources": 4295,
      "ĠBudd": 4296,
      "ĠDun": 4297,
      "elligence": 4298,
      "wide": 4299,
      "Ġcer": 4300,
      "Ġdemon": 4301,
      "ĠJr": 4302,
      "ograp": 4303,
      "ĠWork": 4304,
      "Ġcustom": 4305,
      "ĠAk": 4306,
      "greg": 4307,
      "owers": 4308,
      "osh": 4309,
      "ĠUl": 4310,
      "ĠMcC": 4311,
      "ĠIvan": 4312,
      "ĠSar": 4313,
      "Ġsigned": 4314,
      "osing": 4315,
      "imum": 4316,
      "ader": 4317,
      "Ġvon": 4318,
      "ĠStr": 4319,
      "Ġawards": 4320,
      "Ġautom": 4321,
      "Ġprevent": 4322,
      "rief": 4323,
      "akers": 4324,
      "71": 4325,
      "Ġtaking": 4326,
      "Ġprimarily": 4327,
      "Ġfinancial": 4328,
      "ĠLibrary": 4329,
      "achus": 4330,
      "poration": 4331,
      "Ġpromot": 4332,
      "ĠAp": 4333,
      "ĠTop": 4334,
      "Ġfounder": 4335,
      "Ġcommunities": 4336,
      "Ġ1968": 4337,
      "Se": 4338,
      "ĠBor": 4339,
      "ĠQueen": 4340,
      "oston": 4341,
      "Ġacademic": 4342,
      "ĠChild": 4343,
      "ctions": 4344,
      "ĠPac": 4345,
      "ublican": 4346,
      "Ġchem": 4347,
      "imb": 4348,
      "US": 4349,
      "ĠJac": 4350,
      "ĠBaron": 4351,
      "Ġwood": 4352,
      "ĠKe": 4353,
      "areer": 4354,
      "ĠLee": 4355,
      "emic": 4356,
      "TA": 4357,
      "akh": 4358,
      "Ġant": 4359,
      "ĠFour": 4360,
      "aine": 4361,
      "2001": 4362,
      "verage": 4363,
      "Ġimplement": 4364,
      "Ġancient": 4365,
      "Le": 4366,
      "ĠLater": 4367,
      "Ġthought": 4368,
      "nam": 4369,
      "Ġ1971": 4370,
      "inet": 4371,
      "Ġgun": 4372,
      "Ġinfluence": 4373,
      "ĠTro": 4374,
      "Ġlegisl": 4375,
      "ears": 4376,
      "bar": 4377,
      "oir": 4378,
      "Ad": 4379,
      "Ġannual": 4380,
      "ustr": 4381,
      "Ġremains": 4382,
      "ĠCentre": 4383,
      "Ġmight": 4384,
      "ĠConn": 4385,
      "ĠSupreme": 4386,
      "Ġmention": 4387,
      "Ġlack": 4388,
      "British": 4389,
      "Ġgoal": 4390,
      "ĠUk": 4391,
      "usc": 4392,
      "Ġever": 4393,
      "Ġ1977": 4394,
      "ĠUnivers": 4395,
      "Ġdon": 4396,
      "EC": 4397,
      "adel": 4398,
      "Ġinterp": 4399,
      "alle": 4400,
      "rep": 4401,
      "ĠMax": 4402,
      "ession": 4403,
      "stitu": 4404,
      "set": 4405,
      "Ġmove": 4406,
      "Ġexcept": 4407,
      "Ġriver": 4408,
      "Ġcourse": 4409,
      "uge": 4410,
      "lit": 4411,
      "achusetts": 4412,
      "map": 4413,
      "izes": 4414,
      "Ġnumerous": 4415,
      "96": 4416,
      "ĠMid": 4417,
      "ĠRay": 4418,
      "Ġmajority": 4419,
      "rupt": 4420,
      "acity": 4421,
      "ĠAtlant": 4422,
      "ĠVen": 4423,
      "ĠMP": 4424,
      "stein": 4425,
      "Ġcommonly": 4426,
      "Ġbasketball": 4427,
      "ĠLev": 4428,
      "Ġnecess": 4429,
      "Ġcontinu": 4430,
      "ously": 4431,
      "Ġsociety": 4432,
      "ĠTime": 4433,
      "irection": 4434,
      "ĠWall": 4435,
      "Ġstreng": 4436,
      "ĠSummer": 4437,
      "Ġpp": 4438,
      "Ġroute": 4439,
      "ĠGeorgia": 4440,
      "gypt": 4441,
      "Ġchair": 4442,
      "inem": 4443,
      "Ġbecomes": 4444,
      "igen": 4445,
      "Ġbelieved": 4446,
      "ela": 4447,
      "Ġlove": 4448,
      "Ġelements": 4449,
      "ilies": 4450,
      "Ġseparate": 4451,
      "Ġdeliver": 4452,
      "\":": 4453,
      "ĠCross": 4454,
      "Ġrepresented": 4455,
      "ĠWilliams": 4456,
      "RD": 4457,
      "ounts": 4458,
      "ĠOf": 4459,
      "ĠPolish": 4460,
      "::::": 4461,
      "sky": 4462,
      "ĠKent": 4463,
      "Ġsecurity": 4464,
      "Ġlocality": 4465,
      "Ġbetter": 4466,
      "Bl": 4467,
      "Ġfarm": 4468,
      "found": 4469,
      "vement": 4470,
      "Ġdedic": 4471,
      "Ġhit": 4472,
      "ĠNavy": 4473,
      "Ġtill": 4474,
      "ĠHuman": 4475,
      "ĠDev": 4476,
      "range": 4477,
      "Ġimmedi": 4478,
      "Ġfinished": 4479,
      "Ġaim": 4480,
      "ipment": 4481,
      "ĠProvince": 4482,
      "ĠRam": 4483,
      "inois": 4484,
      "ĠMuslim": 4485,
      "ĠAndrew": 4486,
      "Ġexperience": 4487,
      "obile": 4488,
      "inistry": 4489,
      "enz": 4490,
      "ĠSat": 4491,
      "teen": 4492,
      "Ġsupported": 4493,
      "itting": 4494,
      "ĠBal": 4495,
      "ĠGh": 4496,
      "ĠKong": 4497,
      "Ġcomputer": 4498,
      "62": 4499,
      "Ġweap": 4500,
      "osophy": 4501,
      "PA": 4502,
      "rice": 4503,
      "Ġcities": 4504,
      "LA": 4505,
      "ault": 4506,
      "icted": 4507,
      "rance": 4508,
      "Ġnumbers": 4509,
      "Ġdirectly": 4510,
      "Is": 4511,
      "Ġplatform": 4512,
      "Ġcause": 4513,
      "thur": 4514,
      "antry": 4515,
      "Ġinitially": 4516,
      "Ġrules": 4517,
      "95": 4518,
      "hester": 4519,
      "venue": 4520,
      "ĠBow": 4521,
      "ĠChief": 4522,
      "ĠIraq": 4523,
      "uries": 4524,
      "cean": 4525,
      "Ġ1969": 4526,
      "Ġnomin": 4527,
      "Ġalways": 4528,
      "Ġstories": 4529,
      "Ġcontent": 4530,
      "Ġscreen": 4531,
      "Ġincrease": 4532,
      "urb": 4533,
      "Ġnature": 4534,
      "1999": 4535,
      "Ġ1940": 4536,
      "force": 4537,
      "Ġcommission": 4538,
      "ÑĢ": 4539,
      "Ġalleg": 4540,
      "Amendment": 4541,
      "Ġprofessor": 4542,
      "ĠDirector": 4543,
      "IN": 4544,
      "oud": 4545,
      "Ġacquired": 4546,
      "ĠGame": 4547,
      "Ġcommand": 4548,
      "istance": 4549,
      "Ġrunning": 4550,
      "Ġbehav": 4551,
      "value": 4552,
      "aven": 4553,
      "ivity": 4554,
      "ĠTw": 4555,
      "Ġoccas": 4556,
      "ÅĤ": 4557,
      "ensus": 4558,
      "Ġoperated": 4559,
      "Ġforced": 4560,
      "Ġran": 4561,
      "riz": 4562,
      "Ġsusp": 4563,
      "ĠSpecial": 4564,
      "Ġmanager": 4565,
      "het": 4566,
      "Ġwinning": 4567,
      "Ġpassed": 4568,
      "82": 4569,
      "ĠMassachusetts": 4570,
      "ifying": 4571,
      "Ġlaws": 4572,
      "Ġentered": 4573,
      "ji": 4574,
      "Ġsilver": 4575,
      "itage": 4576,
      "ishes": 4577,
      "Ġnotable": 4578,
      "Ġtrain": 4579,
      "ĠHead": 4580,
      "Ġruns": 4581,
      "Ġ500": 4582,
      "bec": 4583,
      "Ġdouble": 4584,
      "Ġhighest": 4585,
      "ĠDec": 4586,
      "ĠPhilipp": 4587,
      "uild": 4588,
      "Ñģ": 4589,
      "2008": 4590,
      "ople": 4591,
      "ĠCorn": 4592,
      "Ġang": 4593,
      "Ġinn": 4594,
      "ares": 4595,
      "aging": 4596,
      "Ġlarger": 4597,
      "style": 4598,
      "ĠDesp": 4599,
      "rie": 4600,
      "ortun": 4601,
      "ects": 4602,
      "ansas": 4603,
      "500": 4604,
      "ennis": 4605,
      "Ġowner": 4606,
      "Ġap": 4607,
      "mathb": 4608,
      "Ġflag": 4609,
      "Ġproposed": 4610,
      "ĠOrgan": 4611,
      "heast": 4612,
      "ĠBack": 4613,
      "ĠEst": 4614,
      "ronze": 4615,
      "agon": 4616,
      "ĠSpace": 4617,
      "ĠOk": 4618,
      "ĠSports": 4619,
      "Ġtroops": 4620,
      "ĠHind": 4621,
      "Ġmeeting": 4622,
      "ĠFoundation": 4623,
      "omm": 4624,
      "2010": 4625,
      "ĠEll": 4626,
      "ĠDie": 4627,
      "Ġtypes": 4628,
      "Ġrailway": 4629,
      "Ġlikely": 4630,
      "bour": 4631,
      "Ġdeep": 4632,
      "Ġprojects": 4633,
      "Ġappearance": 4634,
      "Ġredu": 4635,
      "Ġaffili": 4636,
      "ĠJustice": 4637,
      "Ġcrick": 4638,
      "ĠCE": 4639,
      "Ġbecoming": 4640,
      "Ġcelebr": 4641,
      "Ġcard": 4642,
      "cow": 4643,
      "ĠHung": 4644,
      "Ġquick": 4645,
      "nes": 4646,
      "Ġcouncil": 4647,
      "respond": 4648,
      "ĠConference": 4649,
      "iece": 4650,
      "ĠBooks": 4651,
      "Ġbring": 4652,
      "ĠLim": 4653,
      "Ġcomment": 4654,
      "Ġdesp": 4655,
      "ructure": 4656,
      "ĠBern": 4657,
      "ĠTour": 4658,
      "ĠTechnology": 4659,
      "Ġstudied": 4660,
      "ĠFar": 4661,
      "uffer": 4662,
      "Ġpaper": 4663,
      "Ġphysical": 4664,
      "93": 4665,
      "hy": 4666,
      "Ġgrowth": 4667,
      "inger": 4668,
      "Ġincreasing": 4669,
      "))": 4670,
      "Ġinterview": 4671,
      "Ġopening": 4672,
      "ĠOffice": 4673,
      "ĠNight": 4674,
      "ĠAnton": 4675,
      "urd": 4676,
      "Ġbr": 4677,
      "ĠLu": 4678,
      "Ġanalysis": 4679,
      "Ġoperation": 4680,
      "Ġmedal": 4681,
      "ĠBlue": 4682,
      "Be": 4683,
      "Ġrate": 4684,
      "enge": 4685,
      "ava": 4686,
      "98": 4687,
      "Ġintended": 4688,
      "Ġended": 4689,
      "Ġfr": 4690,
      "ĠTeam": 4691,
      "Ġmetal": 4692,
      "ĠCy": 4693,
      "Ġcoordin": 4694,
      "Ġmerg": 4695,
      "ĠMichigan": 4696,
      "Ġflo": 4697,
      "ydney": 4698,
      "Ġ}": 4699,
      "ĠAh": 4700,
      "imal": 4701,
      "ba": 4702,
      "ĠRet": 4703,
      "ĠBoston": 4704,
      "Ġnote": 4705,
      "ĠJesus": 4706,
      "Ġsens": 4707,
      "Ġreason": 4708,
      "ĠAnother": 4709,
      "ĠUs": 4710,
      "arters": 4711,
      "zech": 4712,
      "Ġimpact": 4713,
      "ĠIllinois": 4714,
      "ĠBh": 4715,
      "Ġtarget": 4716,
      "Treat": 4717,
      "yer": 4718,
      "ricts": 4719,
      "Ġresponsible": 4720,
      "cles": 4721,
      "Ġsubsequently": 4722,
      "ĠOhio": 4723,
      "ĠHale": 4724,
      "Ġ--": 4725,
      "ĠEgypt": 4726,
      "abeth": 4727,
      "Ġpartn": 4728,
      "Ġwide": 4729,
      "ĠVan": 4730,
      "writer": 4731,
      "ĠMore": 4732,
      "Ġexc": 4733,
      "ĠHong": 4734,
      "osa": 4735,
      "iot": 4736,
      "Ġbackground": 4737,
      "Gen": 4738,
      "level": 4739,
      "Ġvariety": 4740,
      "olis": 4741,
      "ĠAnt": 4742,
      "ĠArgent": 4743,
      "Ġissued": 4744,
      "onia": 4745,
      "Aust": 4746,
      "Ġfamous": 4747,
      "rec": 4748,
      "ĠDevelopment": 4749,
      "May": 4750,
      "ĠPers": 4751,
      "ĠKhan": 4752,
      "ila": 4753,
      "attal": 4754,
      "61": 4755,
      "ĠHor": 4756,
      "ĠFrancisco": 4757,
      "aith": 4758,
      "ĠTal": 4759,
      "Ġdisp": 4760,
      "Ġremain": 4761,
      "ocks": 4762,
      "ounds": 4763,
      "Ġaddress": 4764,
      "Ġapproach": 4765,
      "ĠField": 4766,
      "ydro": 4767,
      "ĠBand": 4768,
      "Ġuniversity": 4769,
      "Ġ1967": 4770,
      "Ġdisplay": 4771,
      "Ġ1966": 4772,
      "Ġ1964": 4773,
      "aters": 4774,
      "ĠArm": 4775,
      "ĠBoy": 4776,
      "ulpt": 4777,
      "Ġpercent": 4778,
      "Ġattendance": 4779,
      "German": 4780,
      "perial": 4781,
      "unction": 4782,
      "2009": 4783,
      "Ġcarried": 4784,
      "ĠRevolution": 4785,
      "Ġmostly": 4786,
      "Ġcharg": 4787,
      "ouri": 4788,
      "Ġlevels": 4789,
      "atively": 4790,
      "Ġblood": 4791,
      "Ġfle": 4792,
      "Ġexecutive": 4793,
      "ternet": 4794,
      "Ġrecords": 4795,
      "ĠBroad": 4796,
      "ĠTam": 4797,
      "ĠViet": 4798,
      "Ġcars": 4799,
      "Ġdead": 4800,
      "edom": 4801,
      "Ġrecording": 4802,
      "Ġchannel": 4803,
      "ĠTod": 4804,
      "ĠSurvey": 4805,
      "Ġpil": 4806,
      "Ġtoday": 4807,
      "Ġfeaturing": 4808,
      "Ġmiddle": 4809,
      "Ġdone": 4810,
      "Ġsched": 4811,
      "Ġpages": 4812,
      "hemat": 4813,
      "nic": 4814,
      "ype": 4815,
      "Ġ1930": 4816,
      "Ãº": 4817,
      "inus": 4818,
      "atus": 4819,
      "ĠRome": 4820,
      "Ġserving": 4821,
      "ĠBell": 4822,
      "Ġleadership": 4823,
      "Ġadj": 4824,
      "Ġsummer": 4825,
      "Ġseat": 4826,
      "anga": 4827,
      "ancy": 4828,
      "works": 4829,
      "icine": 4830,
      "Ġlived": 4831,
      "ĠAlexander": 4832,
      "Ġtracks": 4833,
      "Ġgraph": 4834,
      "Ġunknown": 4835,
      "eder": 4836,
      "Ã¸": 4837,
      "Ġfort": 4838,
      "Ġparents": 4839,
      "ĠRaj": 4840,
      "present": 4841,
      "orph": 4842,
      "AA": 4843,
      "Ġcomposed": 4844,
      "ĠMike": 4845,
      "ributed": 4846,
      "foot": 4847,
      "Ġincorpor": 4848,
      "ĠJean": 4849,
      "oz": 4850,
      "rm": 4851,
      "Ġrecent": 4852,
      "ging": 4853,
      "Ġà¤": 4854,
      "Ġwidely": 4855,
      "iring": 4856,
      "Ġvictory": 4857,
      "ĠWay": 4858,
      "onto": 4859,
      "ĠProgram": 4860,
      "Ġnewspaper": 4861,
      "2012": 4862,
      "ĠFederal": 4863,
      "1990": 4864,
      "ĠLittle": 4865,
      "ĠStan": 4866,
      "Ġlatter": 4867,
      "ĠMoscow": 4868,
      "Ġoperating": 4869,
      "Ġadministrative": 4870,
      "Ġsister": 4871,
      "ova": 4872,
      "Ġsport": 4873,
      "ĠLew": 4874,
      "ĠJeff": 4875,
      "ĠBoth": 4876,
      "Ex": 4877,
      "Ġdro": 4878,
      "No": 4879,
      "ĠRog": 4880,
      "Ġconsider": 4881,
      "ĠBa": 4882,
      "ĠStudies": 4883,
      "FL": 4884,
      "2011": 4885,
      "For": 4886,
      "SU": 4887,
      "Ġborder": 4888,
      "Ġleaders": 4889,
      "Ġoffered": 4890,
      "ĠFamily": 4891,
      "Ġovers": 4892,
      "ĠPoland": 4893,
      "ĠLes": 4894,
      "ĠCharl": 4895,
      "Ġprogress": 4896,
      "Ġindividuals": 4897,
      "Ġprovince": 4898,
      "Ġ1920": 4899,
      "Ġspirit": 4900,
      "hire": 4901,
      "oto": 4902,
      "itude": 4903,
      "ĠAtt": 4904,
      "Î±": 4905,
      "ĠSund": 4906,
      "ĠMov": 4907,
      "Ġ1965": 4908,
      "get": 4909,
      "Ġcompil": 4910,
      "ĠEconom": 4911,
      "Ġepisodes": 4912,
      "ĠDespite": 4913,
      "Ġult": 4914,
      "ĠMinn": 4915,
      "Ġnative": 4916,
      "ĠArea": 4917,
      "Ġhot": 4918,
      "Ġknowledge": 4919,
      "Ġofficers": 4920,
      "erry": 4921,
      "sv": 4922,
      "Ġtable": 4923,
      "Ġraised": 4924,
      "rovers": 4925,
      "ĠSydney": 4926,
      "Ġ1945": 4927,
      "ĠVictoria": 4928,
      "Ġsurname": 4929,
      "ĠCommon": 4930,
      "Ġextended": 4931,
      "Ġalongside": 4932,
      "ĠRepresent": 4933,
      "agh": 4934,
      "Ġ60": 4935,
      "even": 4936,
      "Ġproblems": 4937,
      "CD": 4938,
      "vis": 4939,
      "Ġera": 4940,
      "Ġpeace": 4941,
      "ĠSand": 4942,
      "Ġwestern": 4943,
      "ĠMajor": 4944,
      "Ġestim": 4945,
      "Ġvan": 4946,
      "Ġregist": 4947,
      "Ġdifficult": 4948,
      "Ġconflict": 4949,
      "ĠGuard": 4950,
      "1998": 4951,
      "more": 4952,
      "Ġly": 4953,
      "Ġrepe": 4954,
      "Ġequipment": 4955,
      "ĠCoast": 4956,
      "OS": 4957,
      "ĠCorporation": 4958,
      "incial": 4959,
      "yo": 4960,
      "Ġclear": 4961,
      "ĠThree": 4962,
      "ĠCub": 4963,
      "ĠMir": 4964,
      "ĠJoe": 4965,
      "Ġquestion": 4966,
      "ĠMedia": 4967,
      "asty": 4968,
      "81": 4969,
      "Ġactivity": 4970,
      "1997": 4971,
      "ĠMaster": 4972,
      "ĠHighway": 4973,
      "Ġclaimed": 4974,
      "utt": 4975,
      "Ġblock": 4976,
      "Ġsexual": 4977,
      "Ġmaster": 4978,
      "enty": 4979,
      "grad": 4980,
      "ĠPolit": 4981,
      "BS": 4982,
      "DI": 4983,
      "Ġfiction": 4984,
      "illed": 4985,
      "Ġelectric": 4986,
      "Ġextra": 4987,
      "Ġelections": 4988,
      "Ġcorrespond": 4989,
      "ymph": 4990,
      "ographic": 4991,
      "97": 4992,
      "peed": 4993,
      "ĠDet": 4994,
      "Col": 4995,
      "ĠProject": 4996,
      "Ġsuffer": 4997,
      "ĠDisc": 4998,
      "Ġsoldiers": 4999,
      "ook": 5000,
      "Ġattract": 5001,
      "Ġcerem": 5002,
      "Ġremaining": 5003,
      "ĠGirl": 5004,
      "ĠEnter": 5005,
      "Ġfigure": 5006,
      "Ġconsists": 5007,
      "ibliography": 5008,
      "ĠPen": 5009,
      "ĠSea": 5010,
      "vest": 5011,
      "ĠCa": 5012,
      "Ġtemper": 5013,
      "Ġvoice": 5014,
      "Ġproblem": 5015,
      "Ġcomposer": 5016,
      "Don": 5017,
      "Ġcomes": 5018,
      "ĠIndepend": 5019,
      "ĠGovernor": 5020,
      "Ġcannot": 5021,
      "first": 5022,
      "phas": 5023,
      "ĠJohnson": 5024,
      "Ġinstitutions": 5025,
      "Ġamb": 5026,
      "ĠCas": 5027,
      "orship": 5028,
      "Ġrap": 5029,
      "ui": 5030,
      "ĠLight": 5031,
      "ĠDar": 5032,
      "Ġexpanded": 5033,
      "ackson": 5034,
      "died": 5035,
      "ĠBang": 5036,
      "100": 5037,
      "TM": 5038,
      "ager": 5039,
      "ption": 5040,
      "ker": 5041,
      "Treaties": 5042,
      "ully": 5043,
      "iplom": 5044,
      "Ġability": 5045,
      "ĠBuild": 5046,
      "Ġdefined": 5047,
      "ez": 5048,
      "usion": 5049,
      "Ġpresence": 5050,
      "Ġshot": 5051,
      "Ġreference": 5052,
      "ĠDemocratic": 5053,
      "itted": 5054,
      "amm": 5055,
      "Ġgoing": 5056,
      "Ġeffects": 5057,
      "ĠDaniel": 5058,
      "adelph": 5059,
      "rog": 5060,
      "ĠHoly": 5061,
      "ici": 5062,
      "Ġdomin": 5063,
      "inity": 5064,
      "Ġpotential": 5065,
      "Ġletter": 5066,
      "Ġaverage": 5067,
      "eld": 5068,
      "Ġwhole": 5069,
      "opher": 5070,
      "ashion": 5071,
      "Ġcapacity": 5072,
      "ĠWild": 5073,
      "class": 5074,
      "Ġconsum": 5075,
      "Ġdisease": 5076,
      "Ġmarriage": 5077,
      "Ġinitial": 5078,
      "amin": 5079,
      "ĠKenn": 5080,
      "Ġfamilies": 5081,
      "Ġunc": 5082,
      "Ġattended": 5083,
      "Ġfollows": 5084,
      "lem": 5085,
      "Ġyouth": 5086,
      "Ġneighbor": 5087,
      "Ġsucceed": 5088,
      "adian": 5089,
      "Ġplans": 5090,
      "Ġpal": 5091,
      "Ġdistinct": 5092,
      "ĠFinal": 5093,
      "ĠChris": 5094,
      "ÑĤ": 5095,
      "Ġsu": 5096,
      "eta": 5097,
      "eeks": 5098,
      "^{": 5099,
      "emy": 5100,
      "1996": 5101,
      "Ġrecognized": 5102,
      "Ġbridge": 5103,
      "Ġmeasure": 5104,
      "ĠPacific": 5105,
      "Ġfailed": 5106,
      "Ġsac": 5107,
      "Ġheavy": 5108,
      "Ġamount": 5109,
      "ective": 5110,
      "phy": 5111,
      "Ġsal": 5112,
      "ĠKorea": 5113,
      "Ġserve": 5114,
      "ĠShow": 5115,
      "Ġbasis": 5116,
      "ĠCambridge": 5117,
      "Ġkind": 5118,
      "Ġcoin": 5119,
      "Ġproduce": 5120,
      "living": 5121,
      "STAR": 5122,
      "kes": 5123,
      "Ġleaving": 5124,
      "Ġhours": 5125,
      "Ġselected": 5126,
      "can": 5127,
      "ĠArmen": 5128,
      "ĠChampionships": 5129,
      "Ġhere": 5130,
      "throp": 5131,
      "Ġtherefore": 5132,
      "yal": 5133,
      "sort": 5134,
      "ĠFair": 5135,
      "bre": 5136,
      "onents": 5137,
      "Ġrugby": 5138,
      "Ġprin": 5139,
      "Ġallows": 5140,
      "Ġdedicated": 5141,
      "ourne": 5142,
      "Ġterritory": 5143,
      "olid": 5144,
      "Ġ1963": 5145,
      "Ġauthority": 5146,
      "adelphia": 5147,
      "undred": 5148,
      "ĠCommunity": 5149,
      "Ġadministration": 5150,
      "Ġheadqu": 5151,
      "amber": 5152,
      "ĠStand": 5153,
      "Ġmatches": 5154,
      "ĠCorps": 5155,
      "ĠSerb": 5156,
      "estic": 5157,
      "onic": 5158,
      "ĠPrime": 5159,
      "ĠDuke": 5160,
      "Ġdivided": 5161,
      "ĠTok": 5162,
      "odies": 5163,
      "ĠIndust": 5164,
      "Ġbrief": 5165,
      "ilton": 5166,
      "ĠConf": 5167,
      "94": 5168,
      "Ġplays": 5169,
      "University": 5170,
      "olved": 5171,
      "Or": 5172,
      "Ġshare": 5173,
      "Ġarms": 5174,
      "ione": 5175,
      "ĠWinter": 5176,
      "rics": 5177,
      "ĠBridge": 5178,
      "ĠFurther": 5179,
      "akala": 5180,
      "etherlands": 5181,
      "Ġtreatment": 5182,
      "sen": 5183,
      "Ġcovered": 5184,
      "Ġnet": 5185,
      "Ġfirm": 5186,
      "Ġgas": 5187,
      "Ġ1962": 5188,
      "ĠKen": 5189,
      "ĠSom": 5190,
      "Ġracing": 5191,
      "ikh": 5192,
      "Ġmainly": 5193,
      "ori": 5194,
      "ĠPolice": 5195,
      "een": 5196,
      "oster": 5197,
      "Ġrat": 5198,
      "Ġnotes": 5199,
      "TC": 5200,
      "athan": 5201,
      "Ġdisestabl": 5202,
      "Ġgreen": 5203,
      "Ġworkers": 5204,
      "Ġpan": 5205,
      "ĠLt": 5206,
      "Ġregions": 5207,
      "uten": 5208,
      "ĠReview": 5209,
      "Ġcontact": 5210,
      "mat": 5211,
      "ĠCreek": 5212,
      "ais": 5213,
      "Ġroom": 5214,
      "Ġwinner": 5215,
      "ĠAvenue": 5216,
      "Ġdespite": 5217,
      "Ġbranch": 5218,
      "ĠRegiment": 5219,
      "ĠLineColor": 5220,
      "ĠNations": 5221,
      "ĠOs": 5222,
      "ansion": 5223,
      "ĠAlso": 5224,
      "Ġour": 5225,
      "aling": 5226,
      "Ġconducted": 5227,
      "ĠDesign": 5228,
      "var": 5229,
      "ĠSweden": 5230,
      "yes": 5231,
      "usband": 5232,
      "ĠHaleakala": 5233,
      "Ġversions": 5234,
      "Ġenter": 5235,
      "STARRS": 5236,
      "Ġpoor": 5237,
      "rect": 5238,
      "eline": 5239,
      "arrow": 5240,
      "oli": 5241,
      "Other": 5242,
      "Ġface": 5243,
      "ĠOriginal": 5244,
      "book": 5245,
      "enger": 5246,
      "Ġmotor": 5247,
      "Line": 5248,
      "ĠMalays": 5249,
      "kh": 5250,
      "ĠCard": 5251,
      "aki": 5252,
      "ĠPrize": 5253,
      "Ġsea": 5254,
      "Ġdirection": 5255,
      "izabeth": 5256,
      "ĠAdminist": 5257,
      "Ġreflect": 5258,
      "Ġhockey": 5259,
      "una": 5260,
      "Ġparties": 5261,
      "town": 5262,
      "mm": 5263,
      "Ġfolk": 5264,
      "iques": 5265,
      "ĠSong": 5266,
      "Ne": 5267,
      "Man": 5268,
      "oles": 5269,
      "struction": 5270,
      "former": 5271,
      "ĠNaz": 5272,
      "Ġprof": 5273,
      "ĠJon": 5274,
      "Ġnuclear": 5275,
      "ĠJoh": 5276,
      "Ġdog": 5277,
      "Ġweight": 5278,
      "ĠWilson": 5279,
      "Ġidea": 5280,
      "ĠOlympic": 5281,
      "Ġfast": 5282,
      "Ġmax": 5283,
      "thing": 5284,
      "Ġpet": 5285,
      "adron": 5286,
      "Ġlit": 5287,
      "ĠTrust": 5288,
      "Ġadopted": 5289,
      "Ġassociation": 5290,
      "Ġblue": 5291,
      "Ġformat": 5292,
      "Å«": 5293,
      "Ġshoot": 5294,
      "orter": 5295,
      "iest": 5296,
      "icient": 5297,
      "Ġcounter": 5298,
      "ĠCountry": 5299,
      "__": 5300,
      "Ġcontemporary": 5301,
      "rolled": 5302,
      "Ġmess": 5303,
      "ĠEach": 5304,
      "formed": 5305,
      "Ġnearly": 5306,
      "Rep": 5307,
      "bra": 5308,
      "ĠAbb": 5309,
      "ĠRod": 5310,
      "water": 5311,
      "uls": 5312,
      "Ġtaught": 5313,
      "ĠAsh": 5314,
      "ĠRailway": 5315,
      "Music": 5316,
      "Ġmicro": 5317,
      "ĠBec": 5318,
      "Ġexecut": 5319,
      "pha": 5320,
      "Ġemphas": 5321,
      "ĠAirport": 5322,
      "ĠPower": 5323,
      "Ġstay": 5324,
      "ĠId": 5325,
      "ĠJackson": 5326,
      "Ġglobal": 5327,
      "Ġminister": 5328,
      "Ġarticles": 5329,
      "Ġ1948": 5330,
      "ĠRepublican": 5331,
      "ĠBusiness": 5332,
      "ĠHome": 5333,
      "Ġfinally": 5334,
      "Ġofficially": 5335,
      "Ð¾Ð": 5336,
      "Ġdance": 5337,
      "ĠLy": 5338,
      "Ġmethods": 5339,
      "Ġetc": 5340,
      "ening": 5341,
      "ĠComics": 5342,
      "ĠFore": 5343,
      "1995": 5344,
      "ĠForest": 5345,
      "iang": 5346,
      "Ġbomb": 5347,
      "Ġfriends": 5348,
      "Ed": 5349,
      "rane": 5350,
      "Ġdrug": 5351,
      "Ġtitles": 5352,
      "Ġenough": 5353,
      "Ġhighly": 5354,
      "2020": 5355,
      "ĠSecretary": 5356,
      "2025": 5357,
      "ensity": 5358,
      "Ġpressure": 5359,
      "aped": 5360,
      "Ġprominent": 5361,
      "osis": 5362,
      "Ġpick": 5363,
      "erved": 5364,
      "ON": 5365,
      "Ġrefers": 5366,
      "ĠObl": 5367,
      "Ġclassical": 5368,
      "Ġgives": 5369,
      "ĠWel": 5370,
      "itzer": 5371,
      "eech": 5372,
      "Ġoverall": 5373,
      "ads": 5374,
      "ĠNic": 5375,
      "Ġminutes": 5376,
      "Ġfestival": 5377,
      "Ġinside": 5378,
      "Ġec": 5379,
      "svg": 5380,
      "Ġdistribution": 5381,
      "wer": 5382,
      "ĠToronto": 5383,
      "location": 5384,
      "Ġ1958": 5385,
      "Ġmusicians": 5386,
      "aks": 5387,
      "Ġserves": 5388,
      "Ġhouses": 5389,
      "ĠSil": 5390,
      "ĠBrad": 5391,
      "ĠLi": 5392,
      "ĠWars": 5393,
      "orning": 5394,
      "ienn": 5395,
      "ĠRem": 5396,
      "sch": 5397,
      "onym": 5398,
      "enness": 5399,
      "iced": 5400,
      "ĠAff": 5401,
      "ĠBBC": 5402,
      "rison": 5403,
      "Ġcells": 5404,
      "Ġ00": 5405,
      "unn": 5406,
      "Ġcombined": 5407,
      "mes": 5408,
      "Ġyet": 5409,
      "Ġcategory": 5410,
      "Ġ35": 5411,
      "Ġentry": 5412,
      "Ġapplied": 5413,
      "Ġsuff": 5414,
      "erto": 5415,
      "Ġspent": 5416,
      "Pr": 5417,
      "ĠDown": 5418,
      "2013": 5419,
      "2014": 5420,
      "Ġleave": 5421,
      "Ġsn": 5422,
      "icks": 5423,
      "Ġengineering": 5424,
      "Ġcontinue": 5425,
      "Ġdepart": 5426,
      "Sw": 5427,
      "rical": 5428,
      "This": 5429,
      "oration": 5430,
      "ĠBase": 5431,
      "Ġapplication": 5432,
      "Ġefforts": 5433,
      "Ġofficials": 5434,
      "Ġdefin": 5435,
      "ĠEarl": 5436,
      "ĠSteve": 5437,
      "Ġlook": 5438,
      "Ġspread": 5439,
      "Ġidentified": 5440,
      "also": 5441,
      "ĠClark": 5442,
      "ĠArthur": 5443,
      "under": 5444,
      "AM": 5445,
      "down": 5446,
      "ĠPhiladelphia": 5447,
      "En": 5448,
      "à®": 5449,
      "onent": 5450,
      "ĠEmperor": 5451,
      "Jan": 5452,
      "ĠAbd": 5453,
      "aylor": 5454,
      "ading": 5455,
      "Ġ1961": 5456,
      "Ġhospital": 5457,
      "uese": 5458,
      "Ġcam": 5459,
      "ika": 5460,
      "Ġnine": 5461,
      "ĠUt": 5462,
      "Ġdial": 5463,
      "Ġhy": 5464,
      "Ġvolume": 5465,
      "active": 5466,
      "related": 5467,
      "Ġnation": 5468,
      "ĠNetwork": 5469,
      "Ġeastern": 5470,
      "Ġquality": 5471,
      "Ġsafety": 5472,
      "Ġlif": 5473,
      "Ġengineer": 5474,
      "ĠShortSummary": 5475,
      "Ġ1956": 5476,
      "Ġattacks": 5477,
      "Ġorganized": 5478,
      "ibly": 5479,
      "Ġconstitu": 5480,
      "Ġidentity": 5481,
      "Ġpurs": 5482,
      "Ġ1959": 5483,
      "ĠâĨ": 5484,
      "IT": 5485,
      "aceae": 5486,
      "ĠÄ": 5487,
      "Ġsenior": 5488,
      "iga": 5489,
      "ecting": 5490,
      "Ġurban": 5491,
      "ET": 5492,
      "ĠIslands": 5493,
      "je": 5494,
      "Ġsites": 5495,
      "ĠHal": 5496,
      "Ġacts": 5497,
      "sey": 5498,
      "Ġremoved": 5499,
      "Ġpurpose": 5500,
      "Ġnarr": 5501,
      "ighter": 5502,
      "urer": 5503,
      "cluding": 5504,
      "ĠStephen": 5505,
      "ĠBab": 5506,
      "iat": 5507,
      "Ġinstrument": 5508,
      "Ġthr": 5509,
      "Ġmaterials": 5510,
      "92": 5511,
      "Ġconcent": 5512,
      "Ġreports": 5513,
      "Ġindustrial": 5514,
      "track": 5515,
      "Ġattention": 5516,
      "********": 5517,
      "oln": 5518,
      "Ġtrue": 5519,
      "Ġlabor": 5520,
      "ĠNorway": 5521,
      "bourne": 5522,
      "Ġsays": 5523,
      "Ġcrim": 5524,
      "Ġtold": 5525,
      "Ġdemonstr": 5526,
      "Ġweeks": 5527,
      "Ġheart": 5528,
      "igration": 5529,
      "Ġsupp": 5530,
      "label": 5531,
      "arry": 5532,
      "Ġjournalist": 5533,
      "ĠTre": 5534,
      "mathbf": 5535,
      "ĠPre": 5536,
      "2017": 5537,
      "Ġsearch": 5538,
      "bro": 5539,
      "ghan": 5540,
      "Ä±": 5541,
      "Ġ1944": 5542,
      "Ġreferee": 5543,
      "list": 5544,
      "Ġdiscovered": 5545,
      "occer": 5546,
      "ĠStation": 5547,
      "(\\": 5548,
      "Further": 5549,
      "ĠSu": 5550,
      "All": 5551,
      "Ġfacilities": 5552,
      "2019": 5553,
      "Ã¼r": 5554,
      "Trans": 5555,
      "ho": 5556,
      "Ġprogramming": 5557,
      "ucky": 5558,
      "irds": 5559,
      "iec": 5560,
      "otal": 5561,
      "aints": 5562,
      "ĠHan": 5563,
      "Ġscholar": 5564,
      "aud": 5565,
      "Ġdrivers": 5566,
      "ĠMarc": 5567,
      "Ġstarting": 5568,
      "jan": 5569,
      "law": 5570,
      "Ġice": 5571,
      "olitan": 5572,
      "2016": 5573,
      "aph": 5574,
      "1992": 5575,
      "pass": 5576,
      "bell": 5577,
      "Ġ]]": 5578,
      "Ġpack": 5579,
      "ĠDer": 5580,
      "ĠGil": 5581,
      "ĠServices": 5582,
      "Ġlives": 5583,
      "=-": 5584,
      "National": 5585,
      "gn": 5586,
      "ĠVill": 5587,
      "Ġplants": 5588,
      "arp": 5589,
      "inson": 5590,
      "Ġgenus": 5591,
      "aska": 5592,
      "Ġarchitecture": 5593,
      "Ġrob": 5594,
      "Early": 5595,
      "1994": 5596,
      "ottom": 5597,
      "ĠColor": 5598,
      "Ġthink": 5599,
      "ĠKir": 5600,
      "ĠHospital": 5601,
      "Ġstop": 5602,
      "ĠIndones": 5603,
      "ĠColl": 5604,
      "umes": 5605,
      "Ġjoint": 5606,
      "ologies": 5607,
      "ShortSummary": 5608,
      "ãĥ": 5609,
      "Ġconver": 5610,
      "ĠLewis": 5611,
      "Ġcrew": 5612,
      "Ġillustr": 5613,
      "key": 5614,
      "apore": 5615,
      "PS": 5616,
      "Ġreplace": 5617,
      "2015": 5618,
      "ocated": 5619,
      "Ġseats": 5620,
      "kin": 5621,
      "ĠReport": 5622,
      "Ġlearning": 5623,
      "Ġcontrovers": 5624,
      "Ġdestroyed": 5625,
      "attalion": 5626,
      "Ġbus": 5627,
      "ĠAuthor": 5628,
      "Ġhusband": 5629,
      "And": 5630,
      "sec": 5631,
      "mas": 5632,
      "pper": 5633,
      "lyn": 5634,
      "Ġasked": 5635,
      "Ġ1957": 5636,
      "Ġclaims": 5637,
      "ĠMunicip": 5638,
      "Ġ1947": 5639,
      "ĠGree": 5640,
      "Ġcalc": 5641,
      "Ġsculpt": 5642,
      "ĠGreg": 5643,
      "Ġquickly": 5644,
      "OR": 5645,
      "gal": 5646,
      "1993": 5647,
      "size": 5648,
      "pton": 5649,
      "ĠElizabeth": 5650,
      "Ġjourn": 5651,
      "Ġbegins": 5652,
      "Ġfigures": 5653,
      "ĠLady": 5654,
      "oven": 5655,
      "Ġscene": 5656,
      "aga": 5657,
      "ersonal": 5658,
      "box": 5659,
      "wing": 5660,
      "ĠWrit": 5661,
      "Ġpiano": 5662,
      "ĠRad": 5663,
      "ancing": 5664,
      "Ġcreation": 5665,
      "SR": 5666,
      "Ġnob": 5667,
      "Ġdistricts": 5668,
      "mir": 5669,
      "Will": 5670,
      "Ġ32": 5671,
      "Ġsmaller": 5672,
      "Ġmentioned": 5673,
      "ĠCirc": 5674,
      "á»": 5675,
      "AC": 5676,
      "Ġsettlement": 5677,
      "match": 5678,
      "Ġsecret": 5679,
      "Ġ1939": 5680,
      "imens": 5681,
      "Ġpersonnel": 5682,
      "Ġadapt": 5683,
      "Ġhelped": 5684,
      "ulate": 5685,
      "ÃŃa": 5686,
      "Ġseasons": 5687,
      "ĠSav": 5688,
      "Ġproviding": 5689,
      "ĠOblast": 5690,
      "ĠCapt": 5691,
      "Ġagreement": 5692,
      "https": 5693,
      "Ġauthorities": 5694,
      "ĠMinistry": 5695,
      "ĠGro": 5696,
      "Ġvote": 5697,
      "heim": 5698,
      "imin": 5699,
      "Ġmuseum": 5700,
      "Ġjur": 5701,
      "miss": 5702,
      "itness": 5703,
      "ogen": 5704,
      "ĠJews": 5705,
      "acc": 5706,
      "Ġneeded": 5707,
      "ĠEngineering": 5708,
      "ĠPhilip": 5709,
      "ĠSwedish": 5710,
      "ying": 5711,
      "ĠBrother": 5712,
      "Ġvehicles": 5713,
      "eller": 5714,
      "oned": 5715,
      "Ġfrequently": 5716,
      "real": 5717,
      "ĠCzech": 5718,
      "ĠFederation": 5719,
      "ĠNetherlands": 5720,
      "Ġarts": 5721,
      "Ġturned": 5722,
      "Äį": 5723,
      "Ġdark": 5724,
      "Ġrecon": 5725,
      "ĠSecurity": 5726,
      "2018": 5727,
      "umed": 5728,
      "Ġpublication": 5729,
      "ski": 5730,
      "uct": 5731,
      "ĠAD": 5732,
      "ĠPu": 5733,
      "Ġcrime": 5734,
      "Ġsupply": 5735,
      "Ġolder": 5736,
      "El": 5737,
      "Ġfocused": 5738,
      "Ã£": 5739,
      "Ġwear": 5740,
      "rix": 5741,
      "Ġscope": 5742,
      "wegian": 5743,
      "Ġgot": 5744,
      "Ġleaves": 5745,
      "Ġfunctions": 5746,
      "Ġtheor": 5747,
      "ĠFil": 5748,
      "PG": 5749,
      "itled": 5750,
      "Ġcondition": 5751,
      "eather": 5752,
      "Ġcounty": 5753,
      "Ġallowing": 5754,
      "ĠSimon": 5755,
      "Ġast": 5756,
      "Ġagric": 5757,
      "Ġopportun": 5758,
      "ĠLegisl": 5759,
      "Ġlargely": 5760,
      "anning": 5761,
      "ĠSus": 5762,
      "ĠBol": 5763,
      "ifications": 5764,
      "rier": 5765,
      "ragon": 5766,
      "Ġtree": 5767,
      "1980": 5768,
      "ĠRabb": 5769,
      "ĠProfessor": 5770,
      "sub": 5771,
      "Ġbal": 5772,
      "Ġgoes": 5773,
      "ĠTest": 5774,
      "ĠWalk": 5775,
      "Ġcompared": 5776,
      "Ġformation": 5777,
      "Ġsil": 5778,
      "Ġwithd": 5779,
      "iform": 5780,
      "Ġcontinues": 5781,
      "MS": 5782,
      "aug": 5783,
      "Ġresulting": 5784,
      "Ġcaptured": 5785,
      "Ġgovernor": 5786,
      "Ġhistorian": 5787,
      "ĠMoh": 5788,
      "ĠMic": 5789,
      "Ġgreater": 5790,
      "Ġraces": 5791,
      "ĠTemple": 5792,
      "OC": 5793,
      "Ġbronze": 5794,
      "icus": 5795,
      "Ġrisk": 5796,
      "Ġexperiment": 5797,
      "ifically": 5798,
      "Ġpositions": 5799,
      "ĠForm": 5800,
      "ĠFire": 5801,
      "Ġroyal": 5802,
      "ĠModern": 5803,
      "Ġchampion": 5804,
      "ennessee": 5805,
      "Def": 5806,
      "Ġrevealed": 5807,
      "ami": 5808,
      "ivals": 5809,
      "ĠBuddh": 5810,
      "Ġships": 5811,
      "ĠMemorial": 5812,
      "sex": 5813,
      "asion": 5814,
      "ionally": 5815,
      "omer": 5816,
      "ĠLie": 5817,
      "Ġupper": 5818,
      "Ġlisting": 5819,
      "ĠSanta": 5820,
      "2023": 5821,
      "Ġstreet": 5822,
      "LineColor": 5823,
      "Ġtal": 5824,
      "ĠSever": 5825,
      "ĠBad": 5826,
      "}{": 5827,
      "ĠPrem": 5828,
      "rif": 5829,
      "=&": 5830,
      "Ġliber": 5831,
      "erick": 5832,
      "ĠSI": 5833,
      "ĠBall": 5834,
      "ĠIslamic": 5835,
      "91": 5836,
      "count": 5837,
      "2024": 5838,
      "ĠPlan": 5839,
      "Ġinternal": 5840,
      "urance": 5841,
      "omy": 5842,
      "usal": 5843,
      "Ġdra": 5844,
      "ims": 5845,
      "ĠAlf": 5846,
      "ĠIV": 5847,
      "Ġ1941": 5848,
      "Ġenvironmental": 5849,
      "Ġplanned": 5850,
      "Ġdistance": 5851,
      "1991": 5852,
      "Ġfeel": 5853,
      "South": 5854,
      "ĠRen": 5855,
      "Ġrenamed": 5856,
      "Ġwalk": 5857,
      "ĠLive": 5858,
      "Ġexpress": 5859,
      "Ġboy": 5860,
      "Ġdamage": 5861,
      "host": 5862,
      "Ġcorn": 5863,
      "Ġcritical": 5864,
      "Ġmixed": 5865,
      "andy": 5866,
      "Ġsuppl": 5867,
      "Ġpun": 5868,
      "Ġstore": 5869,
      "Ġmanaged": 5870,
      "Ġpict": 5871,
      "ĠBrig": 5872,
      "ĠEth": 5873,
      "Ġteacher": 5874,
      "Ġdrums": 5875,
      "Ġcombat": 5876,
      "gor": 5877,
      "Ġmix": 5878,
      "Ġoffers": 5879,
      "eman": 5880,
      "Ġadvert": 5881,
      "Austral": 5882,
      "erald": 5883,
      "lers": 5884,
      "pur": 5885,
      "Ġreject": 5886,
      "Ġwins": 5887,
      "ĠBishop": 5888,
      "Ġstream": 5889,
      "see": 5890,
      "ĠRegional": 5891,
      "last": 5892,
      "Code": 5893,
      "Ġdiplom": 5894,
      "ĠKim": 5895,
      "idi": 5896,
      "IC": 5897,
      "ĠKorean": 5898,
      "tra": 5899,
      "Ġtells": 5900,
      "Ġcert": 5901,
      "people": 5902,
      "Ġstra": 5903,
      "ĠGord": 5904,
      "ĠGolden": 5905,
      "zy": 5906,
      "Ġretired": 5907,
      "Ġoccurred": 5908,
      "actions": 5909,
      "Ġroles": 5910,
      "ĠBir": 5911,
      "Ġintelligence": 5912,
      "Ġtele": 5913,
      "Ġbelong": 5914,
      "Members": 5915,
      "ĠSher": 5916,
      "ĠKal": 5917,
      "ĠUN": 5918,
      "ething": 5919,
      "orge": 5920,
      "Ġhosted": 5921,
      "inf": 5922,
      "reated": 5923,
      "Ã¢": 5924,
      "Ġencou": 5925,
      "Ġpit": 5926,
      "Ġanaly": 5927,
      ")===": 5928,
      "Ġslow": 5929,
      "unte": 5930,
      "Ġshape": 5931,
      "ĠWik": 5932,
      "Ġvs": 5933,
      "Ġmusician": 5934,
      "Ġdraft": 5935,
      "West": 5936,
      "ting": 5937,
      "cont": 5938,
      "aron": 5939,
      "Ġdriver": 5940,
      "Ġvehicle": 5941,
      "ieval": 5942,
      "ĠÂ£": 5943,
      "Ġimmediately": 5944,
      "Ġir": 5945,
      "aria": 5946,
      "ĠâĢ¢": 5947,
      "Ġcharge": 5948,
      "Ġhap": 5949,
      "ĠRegion": 5950,
      "ito": 5951,
      "Ġpra": 5952,
      "rene": 5953,
      "ĠFe": 5954,
      "which": 5955,
      "Ġhundred": 5956,
      "Ġstrength": 5957,
      "AN": 5958,
      "raine": 5959,
      "ĠWat": 5960,
      "ĠShah": 5961,
      "Ġmemory": 5962,
      "Ġvirt": 5963,
      "acter": 5964,
      "Ġpush": 5965,
      "Ġcompl": 5966,
      "Ġrecognition": 5967,
      "Ġnormal": 5968,
      "ĠMain": 5969,
      "urrent": 5970,
      "Ġalternative": 5971,
      "Ġactually": 5972,
      "Ġ1946": 5973,
      "incoln": 5974,
      "Ġsimply": 5975,
      "He": 5976,
      "Ġtemple": 5977,
      "Ġthous": 5978,
      "Ġquarter": 5979,
      "It": 5980,
      "ĠSciences": 5981,
      "Ġelement": 5982,
      "Ġ1952": 5983,
      "Ġtranslation": 5984,
      "Rec": 5985,
      "Ġtalk": 5986,
      "Ġcomput": 5987,
      "ĠColon": 5988,
      "ĠGallery": 5989,
      "Ġcart": 5990,
      "stone": 5991,
      "ĠMissouri": 5992,
      "esota": 5993,
      "ĠTennessee": 5994,
      "Ġtraffic": 5995,
      "Ġdeclared": 5996,
      "ĠBah": 5997,
      "ĠOt": 5998,
      "hu": 5999,
      "Ġlink": 6000,
      "Ġdynasty": 6001,
      "ĠLiter": 6002,
      "ĠCastle": 6003,
      "ĠManagement": 6004,
      "igation": 6005,
      "ĠHay": 6006,
      "isa": 6007,
      "Ġfuel": 6008,
      "tery": 6009,
      "ublin": 6010,
      "inder": 6011,
      "EN": 6012,
      "Ġprint": 6013,
      "Ġ1955": 6014,
      "risis": 6015,
      "ĠQueens": 6016,
      "ĠFree": 6017,
      "Ġexchange": 6018,
      "ooth": 6019,
      "Ġburn": 6020,
      "rizona": 6021,
      "1989": 6022,
      "term": 6023,
      "ĠMilitary": 6024,
      "Ġsplit": 6025,
      "Ġexpansion": 6026,
      "Ġsubs": 6027,
      "capt": 6028,
      "ĠMatthew": 6029,
      "rome": 6030,
      "stitutional": 6031,
      "Sports": 6032,
      "Ġinvent": 6033,
      "ĠRom": 6034,
      "Ġpoliticians": 6035,
      "Ġgranted": 6036,
      "ĠBud": 6037,
      "ultan": 6038,
      "ĠAfghan": 6039,
      "Ġtrial": 6040,
      "Ġresident": 6041,
      "ĠMexican": 6042,
      "Ġ1954": 6043,
      "Ġ1949": 6044,
      "rat": 6045,
      "Ġgained": 6046,
      "Ġreceive": 6047,
      "Best": 6048,
      "ĠAsian": 6049,
      "Ġthings": 6050,
      "Ðº": 6051,
      "Ġimpl": 6052,
      "dr": 6053,
      "Ġappar": 6054,
      "ĠOrchestra": 6055,
      "Ġaccomp": 6056,
      "Ġannivers": 6057,
      "Ġparticipated": 6058,
      "ĠBat": 6059,
      "Ġchalleng": 6060,
      "GB": 6061,
      "ĠMun": 6062,
      "ĠHo": 6063,
      "ĠBefore": 6064,
      "ĠSenate": 6065,
      "Ġlibrary": 6066,
      "Ġtheatre": 6067,
      "Ġcontain": 6068,
      "cluded": 6069,
      "Ġexisting": 6070,
      "Ġreduced": 6071,
      "Ġwild": 6072,
      "Ġearned": 6073,
      "Ġpositive": 6074,
      "allel": 6075,
      "aked": 6076,
      "Ġprep": 6077,
      "Ġbaseball": 6078,
      "ropolitan": 6079,
      "Ġhonor": 6080,
      "ĠFox": 6081,
      "Ġheight": 6082,
      "iti": 6083,
      "Ġtitled": 6084,
      "Ġmut": 6085,
      "igrants": 6086,
      "isms": 6087,
      "ĠCO": 6088,
      "Ġresidents": 6089,
      "Ġgiving": 6090,
      "racy": 6091,
      "ĠLtd": 6092,
      "Ġgrew": 6093,
      "rett": 6094,
      "Ġuns": 6095,
      "hedral": 6096,
      "ĠAnth": 6097,
      "ĠAz": 6098,
      "ĠPortuguese": 6099,
      "ervative": 6100,
      "Ġ1953": 6101,
      "Ġnecessary": 6102,
      "Ġconference": 6103,
      "ĠThrough": 6104,
      "achel": 6105,
      "Ġcontrast": 6106,
      "Ġ1942": 6107,
      "Ġsolo": 6108,
      "Ġprincipal": 6109,
      "Ġscientific": 6110,
      "Ġpair": 6111,
      "Ġreach": 6112,
      "Ġ:*": 6113,
      "li": 6114,
      "ĠTaylor": 6115,
      "omot": 6116,
      "Ġhands": 6117,
      "Ġemp": 6118,
      "Ġpolitics": 6119,
      "Ġprotection": 6120,
      "utenant": 6121,
      "Î¿": 6122,
      "Ġfair": 6123,
      "2022": 6124,
      "Ġreligion": 6125,
      "iva": 6126,
      "Ġcommander": 6127,
      "SO": 6128,
      "Ġfully": 6129,
      "olec": 6130,
      "Ġcomic": 6131,
      "ĠHeart": 6132,
      "Ġmunicipal": 6133,
      "ropri": 6134,
      "March": 6135,
      "ishment": 6136,
      "Ġperman": 6137,
      "ĠDeath": 6138,
      "oti": 6139,
      "ĠSpring": 6140,
      "ĠAustria": 6141,
      "Ġmarked": 6142,
      "pson": 6143,
      "ĠMedical": 6144,
      "Ġaspect": 6145,
      "ĠStone": 6146,
      "ĠSab": 6147,
      "wise": 6148,
      "Ġspons": 6149,
      "bed": 6150,
      "2021": 6151,
      "Ġeducational": 6152,
      "ĠFrancis": 6153,
      "ĠTurkey": 6154,
      "Ġconstructed": 6155,
      "Ġrecomm": 6156,
      "Ġestate": 6157,
      "Ġformerly": 6158,
      "Ac": 6159,
      "Ġkept": 6160,
      "Ġapplications": 6161,
      "FC": 6162,
      "vin": 6163,
      "isd": 6164,
      "top": 6165,
      "Ġfifth": 6166,
      "ographer": 6167,
      "ĠLind": 6168,
      "Ġordered": 6169,
      "worth": 6170,
      "ĠNiger": 6171,
      "ĠPier": 6172,
      "Ġsuggest": 6173,
      "odox": 6174,
      "Ġderived": 6175,
      "Ġresources": 6176,
      "On": 6177,
      "onsin": 6178,
      "Ġconnected": 6179,
      "ĠBrook": 6180,
      "Ġrespectively": 6181,
      "Ġlocations": 6182,
      "background": 6183,
      "2026": 6184,
      "ĠEs": 6185,
      "Ġpowers": 6186,
      "Ġfavor": 6187,
      "ĠWeb": 6188,
      "Bo": 6189,
      "dam": 6190,
      "ĠCur": 6191,
      "Ġproperties": 6192,
      "ĠBrian": 6193,
      "Ġteaching": 6194,
      "ttp": 6195,
      "ĠWeek": 6196,
      "Ġmoving": 6197,
      "Ġvisual": 6198,
      "uv": 6199,
      "Ġbad": 6200,
      "isconsin": 6201,
      "code": 6202,
      "Ġop": 6203,
      "Ġsets": 6204,
      "ĠBible": 6205,
      "Ġactions": 6206,
      "Ġsurrounding": 6207,
      "anger": 6208,
      "Ġdepartment": 6209,
      "igenous": 6210,
      "gg": 6211,
      "ĠDor": 6212,
      "ipe": 6213,
      "Ġhyp": 6214,
      "HL": 6215,
      "ĠHy": 6216,
      "ĠVietnam": 6217,
      "Ġmagn": 6218,
      "Ġsituation": 6219,
      "ixt": 6220,
      "ĠFord": 6221,
      "Ġweb": 6222,
      "Ġquant": 6223,
      "Ġwa": 6224,
      "Christ": 6225,
      "Ġholds": 6226,
      "Ġwinners": 6227,
      "Ġinvolving": 6228,
      "md": 6229,
      "ĠHand": 6230,
      "Ġsuit": 6231,
      "ĠTen": 6232,
      "oly": 6233,
      "hard": 6234,
      "ynch": 6235,
      "iÃ³n": 6236,
      "Ã«": 6237,
      "ĠFC": 6238,
      "Ġgod": 6239,
      "Ġbeat": 6240,
      "Ġdoub": 6241,
      "Ġrecover": 6242,
      "Ġbey": 6243,
      "ĠCop": 6244,
      "ĠAud": 6245,
      "xts": 6246,
      "amic": 6247,
      "ĠEP": 6248,
      "ĠLabour": 6249,
      "Ġ1943": 6250,
      "Ġnearby": 6251,
      "Ġsaying": 6252,
      "ĠCape": 6253,
      "Ġphase": 6254,
      "Ġweapons": 6255,
      "car": 6256,
      "Ġunique": 6257,
      "anna": 6258,
      "ĠDoctor": 6259,
      "Ġ*::::": 6260,
      "ruit": 6261,
      "ĠSingapore": 6262,
      "ĠTa": 6263,
      "Ġmulti": 6264,
      "Polit": 6265,
      "chers": 6266,
      "SS": 6267,
      "Ġmom": 6268,
      "Ġple": 6269,
      "Ã£o": 6270,
      "ĠLike": 6271,
      "ĠKel": 6272,
      "Ġcontext": 6273,
      "rage": 6274,
      "Med": 6275,
      "Ġfacility": 6276,
      "lad": 6277,
      "Ġschem": 6278,
      "Ġrestaur": 6279,
      "Ġwall": 6280,
      "Ġ80": 6281,
      "ĠConc": 6282,
      "Ġstandards": 6283,
      "ĠFront": 6284,
      "han": 6285,
      "outs": 6286,
      "ĠStock": 6287,
      "ĠTransport": 6288,
      "Ġsignal": 6289,
      "dCode": 6290,
      "ĠBecause": 6291,
      "vo": 6292,
      "Ġbeyond": 6293,
      "Ġparliament": 6294,
      "Ġdisapp": 6295,
      "ek": 6296,
      "Ġanimals": 6297,
      "Î½": 6298,
      "ryst": 6299,
      "Char": 6300,
      "ĠPass": 6301,
      "ĠKat": 6302,
      "1970": 6303,
      "Comm": 6304,
      "ĠBi": 6305,
      "ĠBarb": 6306,
      "Ġcontributed": 6307,
      "fect": 6308,
      "ĠHamilton": 6309,
      "Ġunderst": 6310,
      "aming": 6311,
      "illing": 6312,
      "Ġsimple": 6313,
      "Art": 6314,
      "Ġlett": 6315,
      "Ġconnection": 6316,
      "ĠDam": 6317,
      "ordan": 6318,
      "Ġplanning": 6319,
      "Ġassess": 6320,
      "Ġliterary": 6321,
      "apolis": 6322,
      "ipped": 6323,
      "leep": 6324,
      "Ġaband": 6325,
      "from": 6326,
      "ĠMarsh": 6327,
      "Ġsust": 6328,
      "rÃ©": 6329,
      "orders": 6330,
      "ĠBeach": 6331,
      "Ġarrived": 6332,
      "ĠMinnesota": 6333,
      "ÙĦ": 6334,
      "come": 6335,
      "ĠBos": 6336,
      "olds": 6337,
      "room": 6338,
      "ĠLabor": 6339,
      "Ġexpected": 6340,
      "Ġmatter": 6341,
      "Ġsymbol": 6342,
      "Ġmachine": 6343,
      "ĠHard": 6344,
      "irmed": 6345,
      "Ġeas": 6346,
      "Ġformal": 6347,
      "ÏĦ": 6348,
      "ĠBulgar": 6349,
      "Ġrot": 6350,
      "illery": 6351,
      "ensis": 6352,
      "Âł": 6353,
      "Ġneeds": 6354,
      "ĠRon": 6355,
      "ĠTony": 6356,
      "ĠPhilippines": 6357,
      "ĠWolf": 6358,
      "Ġcenturies": 6359,
      "ĠInformation": 6360,
      "Ġfinds": 6361,
      "Ġcandidate": 6362,
      "Gu": 6363,
      "ĠIndiana": 6364,
      "Ġsales": 6365,
      "ĠCra": 6366,
      "As": 6367,
      "Ġcas": 6368,
      "ni": 6369,
      "Ġsense": 6370,
      "uration": 6371,
      "Ġstone": 6372,
      "edition": 6373,
      "ĠBarn": 6374,
      "ĠOd": 6375,
      "Ġinhab": 6376,
      "owa": 6377,
      "ĠAdam": 6378,
      "caption": 6379,
      "ĠWorks": 6380,
      "uing": 6381,
      "}\\": 6382,
      "ĠSem": 6383,
      "rastructure": 6384,
      "WC": 6385,
      "Ġtry": 6386,
      "ĠRacing": 6387,
      "Ġjob": 6388,
      "iny": 6389,
      "Ġflight": 6390,
      "ĠMach": 6391,
      "evin": 6392,
      "Ġresear": 6393,
      "Ġclasses": 6394,
      "zh": 6395,
      "weight": 6396,
      "ĠBalt": 6397,
      "Ġpoetry": 6398,
      "ĠIvanovo": 6399,
      "mi": 6400,
      "ĠAli": 6401,
      "ĠImage": 6402,
      "OT": 6403,
      "Ġprobably": 6404,
      "ĠPit": 6405,
      "ĠDark": 6406,
      "Ġpolic": 6407,
      "vard": 6408,
      "etting": 6409,
      "rait": 6410,
      "Ġtransferred": 6411,
      "uties": 6412,
      "ĠMargar": 6413,
      "Ġresulted": 6414,
      "gment": 6415,
      "Ġprotein": 6416,
      "\"),": 6417,
      "Ġsun": 6418,
      "Ġrecently": 6419,
      "Ġadvanced": 6420,
      "Ġfish": 6421,
      "web": 6422,
      "ĠGreece": 6423,
      "gency": 6424,
      "ĠSix": 6425,
      "Ġroll": 6426,
      "olished": 6427,
      "Ġconvers": 6428,
      "Ġstre": 6429,
      "Ġstrugg": 6430,
      "Ġtowns": 6431,
      "Ġcreating": 6432,
      "ĠMountain": 6433,
      "urches": 6434,
      "ĠSon": 6435,
      "Ġ|}": 6436,
      "ĠForeign": 6437,
      "ĠTrib": 6438,
      "Ġ45": 6439,
      "orney": 6440,
      "Ġathlet": 6441,
      "awn": 6442,
      "ĠGi": 6443,
      "Ġsemi": 6444,
      "lah": 6445,
      "ĠJunior": 6446,
      "Ġprepar": 6447,
      "Ġdistingu": 6448,
      "Ġagreed": 6449,
      "lan": 6450,
      "aded": 6451,
      "Ġtechnical": 6452,
      "organ": 6453,
      "Ġfeed": 6454,
      "azines": 6455,
      "clusion": 6456,
      "Ġaccepted": 6457,
      "Ġrapid": 6458,
      "Ġmind": 6459,
      "ymn": 6460,
      "Ju": 6461,
      "ĠTai": 6462,
      "Ġdescent": 6463,
      "Ġoccupation": 6464,
      "ello": 6465,
      "á¹": 6466,
      "ĠNik": 6467,
      "ĠTurn": 6468,
      "Ġattempts": 6469,
      "Ġvent": 6470,
      "Ġmovie": 6471,
      "Ġaccident": 6472,
      "ĠIranian": 6473,
      "asters": 6474,
      "Ġvess": 6475,
      "Ġshall": 6476,
      "ĠGre": 6477,
      "Ġvalues": 6478,
      "Canadian": 6479,
      "elle": 6480,
      "ques": 6481,
      "ĠReal": 6482,
      "Ġmiles": 6483,
      "Ġgather": 6484,
      "osen": 6485,
      "ĠAlan": 6486,
      "Ġpartner": 6487,
      "ĠColorado": 6488,
      "Ġ33": 6489,
      "ĠPrim": 6490,
      "ĠIsraeli": 6491,
      "Ġinterpret": 6492,
      "footnotes": 6493,
      "ĠAthlet": 6494,
      "Ġconce": 6495,
      "Ġox": 6496,
      "Ġcore": 6497,
      "ĠOb": 6498,
      "ĠSud": 6499,
      "Ġhab": 6500,
      "We": 6501,
      "ĠErn": 6502,
      "Ġregarding": 6503,
      "ĠPot": 6504,
      "Ġyour": 6505,
      "ĠWisconsin": 6506,
      "ĠMaria": 6507,
      "itzerland": 6508,
      "UK": 6509,
      "Ġwanted": 6510,
      "Ġends": 6511,
      "Ġscholars": 6512,
      "regon": 6513,
      "Ġfaculty": 6514,
      "ĠSingh": 6515,
      "iously": 6516,
      "uther": 6517,
      "Ġcampus": 6518,
      "pool": 6519,
      "iling": 6520,
      "Ã©e": 6521,
      "Sources": 6522,
      "thodox": 6523,
      "ĠKra": 6524,
      "Ġperformances": 6525,
      "ĠMelbourne": 6526,
      "Ġstock": 6527,
      "ĠDublin": 6528,
      "Ġuser": 6529,
      "Ġinters": 6530,
      "Ġcommittee": 6531,
      "Ġeffort": 6532,
      "ramew": 6533,
      "Ġfellow": 6534,
      "ĠMas": 6535,
      "istry": 6536,
      "Ġslight": 6537,
      "Ġtoward": 6538,
      "olly": 6539,
      "Off": 6540,
      "Ġtim": 6541,
      "Ġcards": 6542,
      "ĠOcean": 6543,
      "CAA": 6544,
      "Ġvot": 6545,
      "Ġ1918": 6546,
      ")\"": 6547,
      "ĠTelevision": 6548,
      "ĠHistoric": 6549,
      "resh": 6550,
      "Ġ90": 6551,
      "Ġ1951": 6552,
      "ĠBrun": 6553,
      "Ġscored": 6554,
      "Ġpurchased": 6555,
      "aro": 6556,
      "ogue": 6557,
      "ĠTurkish": 6558,
      "Ġforward": 6559,
      "Ġimpr": 6560,
      "Ġ70": 6561,
      "Ġbehavior": 6562,
      "Ġgenre": 6563,
      "ĠCroat": 6564,
      "Fran": 6565,
      "uj": 6566,
      "ĠOp": 6567,
      "ruce": 6568,
      "AF": 6569,
      "ĠLincoln": 6570,
      "ĠArchitect": 6571,
      "Ġshared": 6572,
      "Japan": 6573,
      "Ġwrest": 6574,
      "agen": 6575,
      "alo": 6576,
      "ĠHart": 6577,
      "Ġclin": 6578,
      "ĠCrit": 6579,
      "Ġequal": 6580,
      "Ġspect": 6581,
      "Ġestimated": 6582,
      "Ġcontaining": 6583,
      "Ġcho": 6584,
      "ropical": 6585,
      "Ġsuggested": 6586,
      "do": 6587,
      "Ġ(),": 6588,
      "ĠManc": 6589,
      "ED": 6590,
      "Ġvo": 6591,
      "Ġfounding": 6592,
      "ĠSound": 6593,
      "Ġspeech": 6594,
      "Ġbasic": 6595,
      "uled": 6596,
      "anges": 6597,
      "ĠOttoman": 6598,
      "Ġproceed": 6599,
      "Ġ300": 6600,
      "Ġactors": 6601,
      "Ġeffective": 6602,
      "General": 6603,
      "Ġfell": 6604,
      "ht": 6605,
      "ĠArizona": 6606,
      "ĠDavis": 6607,
      "ĠIr": 6608,
      "Ġhero": 6609,
      "ĠLeon": 6610,
      "Ġgrowing": 6611,
      "ĠMans": 6612,
      "Ġtechniques": 6613,
      "Ġadvoc": 6614,
      "Ġhorse": 6615,
      "ĠRights": 6616,
      "Ġdomestic": 6617,
      "ĠBon": 6618,
      "Ġ34": 6619,
      "Ġcompletely": 6620,
      "Ġheadquarters": 6621,
      "ĠCaptain": 6622,
      "Ġhistoric": 6623,
      "Ġphilosophy": 6624,
      "atab": 6625,
      "rees": 6626,
      "ĠAI": 6627,
      "ĠDur": 6628,
      "ailed": 6629,
      "1987": 6630,
      "Ġcoverage": 6631,
      "atal": 6632,
      "ante": 6633,
      "ĠAdvent": 6634,
      "ĠMicro": 6635,
      "ipedia": 6636,
      "ĠNag": 6637,
      "prise": 6638,
      "Ġkingdom": 6639,
      "Ġreign": 6640,
      "chen": 6641,
      "Ġcateg": 6642,
      "ĠAdv": 6643,
      "Ġtrust": 6644,
      "pet": 6645,
      "Ġmountain": 6646,
      "Ġ36": 6647,
      "Ġdescribes": 6648,
      "ES": 6649,
      "ocese": 6650,
      "ĠChile": 6651,
      "Ġresistance": 6652,
      "Äĥ": 6653,
      "Ġcalls": 6654,
      "ĠMalaysia": 6655,
      "Ġbig": 6656,
      "Ġaggreg": 6657,
      "Ġoperates": 6658,
      "Ġmunicipality": 6659,
      "mdash": 6660,
      "MC": 6661,
      "rum": 6662,
      "ĠShort": 6663,
      "Ġlaunch": 6664,
      "Ġethnic": 6665,
      "ĠGordon": 6666,
      "ĠFac": 6667,
      "Ġheav": 6668,
      "Ġarrested": 6669,
      "Ġneighborhood": 6670,
      "Ġplatforms": 6671,
      "ĠNick": 6672,
      "Ġtranslated": 6673,
      "Ġdocumentary": 6674,
      "Ġsubsequent": 6675,
      "ieces": 6676,
      "ĠSel": 6677,
      "olas": 6678,
      "wealth": 6679,
      "Ġassigned": 6680,
      "Ġgeneration": 6681,
      "ĠForces": 6682,
      "Ġconstant": 6683,
      "unications": 6684,
      "ois": 6685,
      "pa": 6686,
      "icts": 6687,
      "scape": 6688,
      "Ġpoly": 6689,
      "ĠNY": 6690,
      "ĠDomin": 6691,
      "western": 6692,
      "Ġopposition": 6693,
      "ĠEc": 6694,
      "iants": 6695,
      "ĠMember": 6696,
      "ĠAlbert": 6697,
      "Ġopera": 6698,
      "Ġcriminal": 6699,
      "iled": 6700,
      "otic": 6701,
      "ache": 6702,
      "Ġ1936": 6703,
      "Ġimages": 6704,
      "Ġdrive": 6705,
      "anging": 6706,
      "Ġspecifically": 6707,
      "ĠPublishing": 6708,
      "ĠTokyo": 6709,
      "Ġfashion": 6710,
      "Ġvisit": 6711,
      "Ġsecondary": 6712,
      "ĠPap": 6713,
      "Ġcycl": 6714,
      "glas": 6715,
      "AT": 6716,
      "anes": 6717,
      "ĠSeveral": 6718,
      "Ġdesignated": 6719,
      "ĠDC": 6720,
      "ĠNorwegian": 6721,
      "inces": 6722,
      "point": 6723,
      "ĠKey": 6724,
      "Ġnewly": 6725,
      "ĠAllen": 6726,
      "ĠMoon": 6727,
      "cha": 6728,
      "achers": 6729,
      "sson": 6730,
      "Ġtheme": 6731,
      "riev": 6732,
      "French": 6733,
      "ĠNotable": 6734,
      "ĠRose": 6735,
      "ĠInfantry": 6736,
      "ĠAmong": 6737,
      "ĠSilver": 6738,
      "Ġproced": 6739,
      "onder": 6740,
      "Ġcolumn": 6741,
      "Ġcitizens": 6742,
      "life": 6743,
      "ĠPun": 6744,
      "Ġfactors": 6745,
      "ĠNow": 6746,
      "ĠKam": 6747,
      "Ġindependence": 6748,
      "isf": 6749,
      "ĠLow": 6750,
      "ĠKansas": 6751,
      "Ġeconomy": 6752,
      "las": 6753,
      "ĠCareer": 6754,
      "ĠKentucky": 6755,
      "equ": 6756,
      "ĠSchools": 6757,
      "tainment": 6758,
      "ĠHu": 6759,
      "avid": 6760,
      "Ġpublications": 6761,
      "Ġpainting": 6762,
      "Ġhappen": 6763,
      "ĠHou": 6764,
      "scription": 6765,
      "Ġconsult": 6766,
      "1988": 6767,
      "ĠRoss": 6768,
      "Ġscale": 6769,
      "Ġlists": 6770,
      "hammad": 6771,
      "Ġpossess": 6772,
      "hol": 6773,
      "ĠMaryland": 6774,
      "ĠLocal": 6775,
      "ogy": 6776,
      "ĠTs": 6777,
      "jo": 6778,
      "othing": 6779,
      "Ġlicens": 6780,
      "ĠBorn": 6781,
      "Ġcompetitions": 6782,
      "ÃŃn": 6783,
      "Ġstor": 6784,
      "Ġ1938": 6785,
      "Ġ(,": 6786,
      "ĠInn": 6787,
      "Ġjudge": 6788,
      "oslav": 6789,
      "à¤¾": 6790,
      "1986": 6791,
      "Ġinspired": 6792,
      "ĠGer": 6793,
      "Ġcontest": 6794,
      "Ġcab": 6795,
      "ĠBurn": 6796,
      "Ġyounger": 6797,
      "William": 6798,
      "Ġlimit": 6799,
      "Ġbrothers": 6800,
      "ĠArabic": 6801,
      "ĠMiller": 6802,
      "ĠChildren": 6803,
      "ĠWell": 6804,
      "iders": 6805,
      "ĠHarry": 6806,
      "bi": 6807,
      "iner": 6808,
      "Ġcollected": 6809,
      "Ġkilling": 6810,
      "August": 6811,
      "Ġbenef": 6812,
      "rine": 6813,
      "Ġ...": 6814,
      "ĠInst": 6815,
      "Ġsurvey": 6816,
      "Ġsuccessor": 6817,
      "III": 6818,
      "engers": 6819,
      "while": 6820,
      "Ġassistant": 6821,
      "Ġdetermined": 6822,
      "usalem": 6823,
      "zz": 6824,
      "Ġfaith": 6825,
      "ĠDue": 6826,
      "long": 6827,
      "Ġoccurs": 6828,
      "icit": 6829,
      "ĠAge": 6830,
      "ista": 6831,
      "Ġfields": 6832,
      "Ġpaid": 6833,
      "Ġinstall": 6834,
      "Ġviolence": 6835,
      "fa": 6836,
      "Ġequival": 6837,
      "Ġmill": 6838,
      "ĠNotes": 6839,
      "ĠToday": 6840,
      "Ġdevice": 6841,
      "Ġhop": 6842,
      "1985": 6843,
      "Ġconcert": 6844,
      "sche": 6845,
      "Ġpowerful": 6846,
      "Ġpractices": 6847,
      "Ġportion": 6848,
      "Air": 6849,
      "Ġfloor": 6850,
      "Ġring": 6851,
      "apted": 6852,
      "April": 6853,
      "Ġobtained": 6854,
      "Ġhydro": 6855,
      "weet": 6856,
      "Ġacting": 6857,
      "ĠConstitution": 6858,
      "RECT": 6859,
      "ĠAst": 6860,
      "Ġinstruct": 6861,
      "Ġ825": 6862,
      "Ġelectronic": 6863,
      "Ġdaily": 6864,
      "By": 6865,
      "Par": 6866,
      "rell": 6867,
      "ĠImp": 6868,
      "Ġsevent": 6869,
      "Ġsons": 6870,
      "iments": 6871,
      "ĠYour": 6872,
      "zen": 6873,
      "REDI": 6874,
      "Ġvenues": 6875,
      "ĠNap": 6876,
      "cell": 6877,
      "Ġacid": 6878,
      "aux": 6879,
      "ĠQuebec": 6880,
      "Ġfunding": 6881,
      "Ġsucceeded": 6882,
      "ĠDave": 6883,
      "ĠJam": 6884,
      "Ġcompar": 6885,
      "\").": 6886,
      "Ġsides": 6887,
      "ĠLat": 6888,
      "Ġcausing": 6889,
      "ĠTrad": 6890,
      "REDIRECT": 6891,
      "Ġax": 6892,
      "ĠMarine": 6893,
      "Co": 6894,
      "DA": 6895,
      "ĠHans": 6896,
      "claim": 6897,
      "Ġcoordinates": 6898,
      "Ġpainter": 6899,
      "inth": 6900,
      "ĠCab": 6901,
      "Ġopposed": 6902,
      "ĠAtlantic": 6903,
      "ĠStat": 6904,
      "zant": 6905,
      "ĠHockey": 6906,
      "Ġscen": 6907,
      "ĠNich": 6908,
      "agan": 6909,
      "Ġseem": 6910,
      "Ġaudience": 6911,
      "agu": 6912,
      "ĠCommand": 6913,
      "Ġguard": 6914,
      "ĠHun": 6915,
      "enny": 6916,
      "rence": 6917,
      "Ġ1914": 6918,
      "osm": 6919,
      "Ġcomedy": 6920,
      "Ġprocesses": 6921,
      "wich": 6922,
      "Ġadvant": 6923,
      "ĠAdministration": 6924,
      "Ġ1937": 6925,
      "Ġcensus": 6926,
      "Ġnick": 6927,
      "ĠProduct": 6928,
      "ĠWalter": 6929,
      "Ġreduce": 6930,
      "Ġpromoted": 6931,
      "ardo": 6932,
      "Ġfighting": 6933,
      "ĠAffairs": 6934,
      "ĠRecord": 6935,
      "ĠMargaret": 6936,
      "VD": 6937,
      "ĠPur": 6938,
      "ĠMagazine": 6939,
      "Ġmyth": 6940,
      "Ġways": 6941,
      "ĠThird": 6942,
      "Ġoldest": 6943,
      "ĠVis": 6944,
      "Mon": 6945,
      "ĠSunday": 6946,
      "Date": 6947,
      "lines": 6948,
      "ĠFinn": 6949,
      "ĠBan": 6950,
      "idden": 6951,
      "Ġorders": 6952,
      "ĠTar": 6953,
      "ĠPhys": 6954,
      "ĠCost": 6955,
      "Ġexistence": 6956,
      "Ġsynd": 6957,
      "Ġdoctor": 6958,
      "June": 6959,
      "clop": 6960,
      "Cont": 6961,
      "Ġresc": 6962,
      "thes": 6963,
      "ugu": 6964,
      "lahoma": 6965,
      "Ġmus": 6966,
      "season": 6967,
      "ourse": 6968,
      "spec": 6969,
      "Ġindicate": 6970,
      "burn": 6971,
      "Ġparallel": 6972,
      "ĠRepresentatives": 6973,
      "Ġterror": 6974,
      "pop": 6975,
      "stic": 6976,
      "Ġrespond": 6977,
      "Ġhair": 6978,
      "uccess": 6979,
      "1983": 6980,
      "ĠRick": 6981,
      "RC": 6982,
      "ĠRoy": 6983,
      "Ġrelatively": 6984,
      "agues": 6985,
      "ĠAmericans": 6986,
      "Ġvocal": 6987,
      "ĠMand": 6988,
      "ighth": 6989,
      "plete": 6990,
      "Ġbacking": 6991,
      "ĠTan": 6992,
      "uts": 6993,
      "Ġchemical": 6994,
      "Track": 6995,
      "lov": 6996,
      "ĠFle": 6997,
      "ĠBuilding": 6998,
      "Elect": 6999,
      "ymphony": 7000,
      "ĠRa": 7001,
      "uma": 7002,
      "ouns": 7003,
      "Ġsupporting": 7004,
      "Ġswim": 7005,
      "ĠCrown": 7006,
      "July": 7007,
      "Ġrom": 7008,
      "1979": 7009,
      "ĠMedal": 7010,
      "ĠArgentina": 7011,
      "lets": 7012,
      "adi": 7013,
      "Ġselect": 7014,
      "Ġincident": 7015,
      "Ġpiece": 7016,
      "Ġavoid": 7017,
      "elli": 7018,
      "Ġgirls": 7019,
      "ĠMuhammad": 7020,
      "Ġbeaut": 7021,
      "ĠChair": 7022,
      "Ġyellow": 7023,
      "iki": 7024,
      "Ġdrama": 7025,
      "Ġinvasion": 7026,
      "ĠMean": 7027,
      "rin": 7028,
      "eness": 7029,
      "ingham": 7030,
      "Ġwant": 7031,
      "ĠOregon": 7032,
      "Ġletters": 7033,
      "Ġsetting": 7034,
      "Ġ*#": 7035,
      "Ġlat": 7036,
      "etles": 7037,
      "Ġsquare": 7038,
      "Ġsomething": 7039,
      "din": 7040,
      "Ġmand": 7041,
      "ĠGlobal": 7042,
      "ĠDick": 7043,
      "Ġchain": 7044,
      "ĠLin": 7045,
      "Back": 7046,
      "ĠJordan": 7047,
      "Ġsan": 7048,
      "utions": 7049,
      "Ġprotect": 7050,
      "Ġsought": 7051,
      "antic": 7052,
      "enh": 7053,
      "Ġdeveloping": 7054,
      "Ġmathemat": 7055,
      "then": 7056,
      "antasy": 7057,
      "ĠAlber": 7058,
      "gium": 7059,
      "Ð»": 7060,
      "Ġcoal": 7061,
      "ĠJerusalem": 7062,
      "ĠDu": 7063,
      "Ġspring": 7064,
      "lay": 7065,
      "outheast": 7066,
      "Ġ39": 7067,
      "Ġwidth": 7068,
      "Phil": 7069,
      "ĠIndependent": 7070,
      "ĠBry": 7071,
      "ĠEric": 7072,
      "Ġpatients": 7073,
      "Ġtwenty": 7074,
      "ĠManchester": 7075,
      "ĠTreat": 7076,
      "Men": 7077,
      "agg": 7078,
      "Ġargued": 7079,
      "Ġdecades": 7080,
      "Ġmis": 7081,
      "Ġshowed": 7082,
      "ĠFI": 7083,
      "Ġconvent": 7084,
      "run": 7085,
      "Ġaid": 7086,
      "Ġrevolution": 7087,
      "ĠBou": 7088,
      "Novels": 7089,
      "ĠStory": 7090,
      "MP": 7091,
      "Northern": 7092,
      "annels": 7093,
      "Ġlegend": 7094,
      "Ġportray": 7095,
      "North": 7096,
      "roc": 7097,
      "ĠNon": 7098,
      "ĠInternet": 7099,
      "Ġcoming": 7100,
      "Ġpoll": 7101,
      "ped": 7102,
      "aza": 7103,
      "Ġalleged": 7104,
      "wick": 7105,
      "Ġattend": 7106,
      "Ġending": 7107,
      "Ġexpressed": 7108,
      "Ġ400": 7109,
      "Ġanimal": 7110,
      "Ġcauses": 7111,
      "September": 7112,
      "Ġcorpor": 7113,
      "ĠTrade": 7114,
      "Ab": 7115,
      "Ã©t": 7116,
      "Ġsoci": 7117,
      "Ġedited": 7118,
      "Ġobjects": 7119,
      "Ġextensive": 7120,
      "Ġfactor": 7121,
      "ĠEntertainment": 7122,
      "ĠSaf": 7123,
      "amples": 7124,
      "Ġcarry": 7125,
      "Ġultimately": 7126,
      "Ġtried": 7127,
      "Ġille": 7128,
      "emeter": 7129,
      "rik": 7130,
      "Ġnor": 7131,
      "Ġped": 7132,
      "ĠLouisiana": 7133,
      "ĠSquadron": 7134,
      "entially": 7135,
      "Ġtransition": 7136,
      "ĠMarket": 7137,
      "Ġbodies": 7138,
      "bass": 7139,
      "rowd": 7140,
      "iley": 7141,
      "1982": 7142,
      "Ġwarn": 7143,
      "Ġban": 7144,
      "emetery": 7145,
      "length": 7146,
      "Ġnarrow": 7147,
      "ayan": 7148,
      "Ġadapted": 7149,
      "Ġbands": 7150,
      "Ġglass": 7151,
      "Ġrise": 7152,
      "Ġsequence": 7153,
      "Ġrein": 7154,
      "ogle": 7155,
      "Ġshift": 7156,
      "ĠTerrit": 7157,
      "icer": 7158,
      "ĠSultan": 7159,
      "ĠLet": 7160,
      "stream": 7161,
      "ĠPope": 7162,
      "chi": 7163,
      "Ġearth": 7164,
      "ĠDom": 7165,
      "Ġrepresenting": 7166,
      "Ġmilit": 7167,
      "ĠGard": 7168,
      "Ġmeant": 7169,
      "PC": 7170,
      "ĠPoint": 7171,
      "Ġreaction": 7172,
      "Ġrequires": 7173,
      "October": 7174,
      "hr": 7175,
      "Ġlands": 7176,
      "di": 7177,
      "ecution": 7178,
      "ĠVers": 7179,
      "Ġrepresentative": 7180,
      "UN": 7181,
      "Ġapproved": 7182,
      "avalry": 7183,
      "Ġchairman": 7184,
      "OM": 7185,
      "Ġbul": 7186,
      "Ġbillion": 7187,
      "ĠBus": 7188,
      "Ġbatt": 7189,
      "ĠWho": 7190,
      "Ġcarbon": 7191,
      "Ġexamples": 7192,
      "Ġ(#": 7193,
      "'.": 7194,
      "Ġadvance": 7195,
      "Ġcommunication": 7196,
      "Ä«": 7197,
      "ĠMit": 7198,
      "ega": 7199,
      "ĠBrand": 7200,
      "ĠKl": 7201,
      "ĠGuide": 7202,
      "ĠChap": 7203,
      "Ġmaint": 7204,
      "Ġachieved": 7205,
      "oa": 7206,
      "adow": 7207,
      "oes": 7208,
      "don": 7209,
      "kov": 7210,
      "Ġintroduction": 7211,
      "Ġperforming": 7212,
      "Women": 7213,
      "Ġexclus": 7214,
      "Ġ::": 7215,
      "Ġspiritual": 7216,
      "umin": 7217,
      "Ġfeet": 7218,
      "Ġheat": 7219,
      "ĠDiv": 7220,
      "isters": 7221,
      "World": 7222,
      "including": 7223,
      "Ġbelief": 7224,
      "Ġgar": 7225,
      "ĠDouglas": 7226,
      "ĠEnvironment": 7227,
      "anned": 7228,
      "Ġdoct": 7229,
      "reprene": 7230,
      "elve": 7231,
      "ĠRun": 7232,
      "Ġnom": 7233,
      "Ġid": 7234,
      "Ġprice": 7235,
      "ĠCre": 7236,
      "Ġment": 7237,
      "Ġrecip": 7238,
      "Ġpropos": 7239,
      "Ġtend": 7240,
      "ĠLor": 7241,
      "ĠFriend": 7242,
      "bums": 7243,
      "ĠGab": 7244,
      "ovation": 7245,
      "igious": 7246,
      "Ġinfluenced": 7247,
      "Ġdevices": 7248,
      "Fictional": 7249,
      "Ġdie": 7250,
      "ĠâĢĺ": 7251,
      "Ġmayor": 7252,
      "ĠSn": 7253,
      "eland": 7254,
      "ĠThus": 7255,
      "Ġdocuments": 7256,
      "Military": 7257,
      "icut": 7258,
      "Ġexpression": 7259,
      "Ġbelieve": 7260,
      "Ġinstruments": 7261,
      "ĠDream": 7262,
      "ĠKarl": 7263,
      "Ġcompeted": 7264,
      "LC": 7265,
      "fr": 7266,
      "Ã©s": 7267,
      "Ġleads": 7268,
      "Ġceremony": 7269,
      "At": 7270,
      "ĠBattalion": 7271,
      "ellect": 7272,
      "osure": 7273,
      "Ġregarded": 7274,
      "ĠBeg": 7275,
      "ĠBetween": 7276,
      "ĠSri": 7277,
      "ĠDal": 7278,
      "Ġabb": 7279,
      "1977": 7280,
      "asa": 7281,
      "Ġbud": 7282,
      "Ġ1934": 7283,
      "ĠConnect": 7284,
      "Ġpartnership": 7285,
      "IV": 7286,
      "ĠStew": 7287,
      "Ġholding": 7288,
      "ĠExt": 7289,
      "ĠChannel": 7290,
      "ĠPatrick": 7291,
      "ĠJuan": 7292,
      "aman": 7293,
      "itionally": 7294,
      "Ġfinish": 7295,
      "ĠSquare": 7296,
      "fort": 7297,
      "ÙĬ": 7298,
      "rav": 7299,
      "ĠRoger": 7300,
      "Ġtun": 7301,
      "Ġ1919": 7302,
      "ridges": 7303,
      "ĠNa": 7304,
      "issance": 7305,
      "1984": 7306,
      "Ġprogramme": 7307,
      "isations": 7308,
      "ĠBerg": 7309,
      "Ġinfrastructure": 7310,
      "Ġactual": 7311,
      "emble": 7312,
      "Ġjurisd": 7313,
      "raction": 7314,
      "Ġappearances": 7315,
      "ĠSwitzerland": 7316,
      "Ġpriest": 7317,
      "ĠPuerto": 7318,
      "ĠBeng": 7319,
      "iller": 7320,
      "BL": 7321,
      "Ġshowing": 7322,
      "ĠHoward": 7323,
      "Ġfear": 7324,
      "Act": 7325,
      "Ġobserved": 7326,
      "ĠWin": 7327,
      "Ġexact": 7328,
      "Ġusers": 7329,
      "inding": 7330,
      "1981": 7331,
      "Ġescape": 7332,
      "Ġhumans": 7333,
      "ĠLast": 7334,
      "Ġcorrect": 7335,
      "Ġattempted": 7336,
      "ĠGib": 7337,
      "ĠGarden": 7338,
      "oured": 7339,
      "rapy": 7340,
      "ĠOrthodox": 7341,
      "eless": 7342,
      "uis": 7343,
      "Ġinher": 7344,
      "Ġoffering": 7345,
      "Ġspok": 7346,
      "rated": 7347,
      "ĠPed": 7348,
      "ographical": 7349,
      "Sec": 7350,
      "ĠVienn": 7351,
      "Ġnegoti": 7352,
      "Ġlawyer": 7353,
      "Australian": 7354,
      "Ġframew": 7355,
      "ĠIl": 7356,
      "Ġ1933": 7357,
      "Ġclean": 7358,
      "fully": 7359,
      "verse": 7360,
      "Ġiron": 7361,
      "La": 7362,
      "angel": 7363,
      "hing": 7364,
      "mouth": 7365,
      "Ġdefense": 7366,
      "Qu": 7367,
      "Ġenj": 7368,
      "Ġsummary": 7369,
      "Ġrival": 7370,
      "ĠAlb": 7371,
      "Ġmel": 7372,
      "ĠLib": 7373,
      "ĠDefense": 7374,
      "mb": 7375,
      "Ġphen": 7376,
      "Ġrear": 7377,
      "ĠDanish": 7378,
      "Ġdefend": 7379,
      "oen": 7380,
      "Ġbishop": 7381,
      "ania": 7382,
      "Ġmaintain": 7383,
      "ĠAmendment": 7384,
      "Govern": 7385,
      "Ġbrain": 7386,
      "ĠNev": 7387,
      "Ġinaug": 7388,
      "Ġtwice": 7389,
      "Ass": 7390,
      "cap": 7391,
      "olt": 7392,
      "Ġdeploy": 7393,
      "Cy": 7394,
      "bound": 7395,
      "Ġsector": 7396,
      "Ġfoundation": 7397,
      "forcement": 7398,
      "stan": 7399,
      "ĠKu": 7400,
      "Ġrestrict": 7401,
      "Ġideas": 7402,
      "Res": 7403,
      "Ġoperate": 7404,
      "ĠWindows": 7405,
      "Red": 7406,
      "Ġrefused": 7407,
      "Ġgraduated": 7408,
      "irt": 7409,
      "ĠLegislative": 7410,
      "DP": 7411,
      "apes": 7412,
      "ĠAnderson": 7413,
      "ateur": 7414,
      "ĠFood": 7415,
      "Ġtemperature": 7416,
      "log": 7417,
      "obe": 7418,
      "Ġemot": 7419,
      "Ġattacked": 7420,
      "Ġmorning": 7421,
      "ĠMethod": 7422,
      "Ġ1929": 7423,
      "ithuan": 7424,
      "Ġexerc": 7425,
      "eton": 7426,
      "TF": 7427,
      "Ġretail": 7428,
      "Ġestablishment": 7429,
      "Ġbegin": 7430,
      "Ġforest": 7431,
      "ĠNar": 7432,
      "Ġadvent": 7433,
      "ippi": 7434,
      "January": 7435,
      "Ġ1928": 7436,
      "ĠVo": 7437,
      "Ġencourag": 7438,
      "vant": 7439,
      "Ġconsequ": 7440,
      "ĠYouth": 7441,
      "Ġcancer": 7442,
      "Ġlyrics": 7443,
      "leges": 7444,
      "Ġskills": 7445,
      "Bibliography": 7446,
      "Ġmaintained": 7447,
      "First": 7448,
      "ishers": 7449,
      "My": 7450,
      "hop": 7451,
      "ĠMaur": 7452,
      "olo": 7453,
      "aby": 7454,
      "Ġstrategy": 7455,
      "ĠUkraine": 7456,
      "Ġfictional": 7457,
      "idel": 7458,
      "Ġcolonial": 7459,
      "Î¹": 7460,
      "Ġsuperv": 7461,
      "ĠKa": 7462,
      "Ġextrem": 7463,
      "Ġcouple": 7464,
      "Ġlegislation": 7465,
      "AL": 7466,
      "Ġcontributions": 7467,
      "ĠOklahoma": 7468,
      "300": 7469,
      "uru": 7470,
      "ĠWikipedia": 7471,
      "race": 7472,
      "Ġchosen": 7473,
      "resents": 7474,
      "Ġconfirmed": 7475,
      "Ġstrike": 7476,
      "Ġmonarch": 7477,
      "ĠEven": 7478,
      "Ġmarg": 7479,
      "othes": 7480,
      "ĠWing": 7481,
      "December": 7482,
      "ĠByzant": 7483,
      "Ġimprove": 7484,
      "ĠJane": 7485,
      "Ġopin": 7486,
      "estivals": 7487,
      "Ġexperi": 7488,
      "Ġcycle": 7489,
      "ĠOnly": 7490,
      "ĠRace": 7491,
      "Ġunable": 7492,
      "Ġjustice": 7493,
      "Ġrequirements": 7494,
      "uda": 7495,
      "ĠWhat": 7496,
      "Ġparent": 7497,
      "ĠJosÃ©": 7498,
      "Ġrough": 7499,
      "ĠCommonwealth": 7500,
      "Ġ1927": 7501,
      "Ġruled": 7502,
      "election": 7503,
      "ĠTun": 7504,
      "uthors": 7505,
      "ĠØ": 7506,
      "Ġ1935": 7507,
      "cient": 7508,
      "Ġentertain": 7509,
      "Ġexhibition": 7510,
      "ci": 7511,
      "ĠFame": 7512,
      "Ġimportance": 7513,
      "ĠPalest": 7514,
      "ĠFrederick": 7515,
      "Ġtools": 7516,
      "ĠHom": 7517,
      "ishments": 7518,
      "lades": 7519,
      "Ġhighway": 7520,
      "1960": 7521,
      "irty": 7522,
      "ĠÃī": 7523,
      "Ġfailure": 7524,
      "Ġconsisted": 7525,
      "new": 7526,
      "Ġreasons": 7527,
      "Defunct": 7528,
      "ĠFund": 7529,
      "Ġonto": 7530,
      "Ġutil": 7531,
      "arts": 7532,
      "1968": 7533,
      "pir": 7534,
      "Ġfranch": 7535,
      "Ġlap": 7536,
      "Ġclosely": 7537,
      "opping": 7538,
      "Ġconqu": 7539,
      "abad": 7540,
      "abama": 7541,
      "ivate": 7542,
      "iate": 7543,
      ")==": 7544,
      "Ġcomposers": 7545,
      "ĠSF": 7546,
      "net": 7547,
      "Ġcompilation": 7548,
      "ĠAnthony": 7549,
      "Ġ1900": 7550,
      "keep": 7551,
      "Ġsnow": 7552,
      "ishops": 7553,
      "ĠAndre": 7554,
      "Ġsteel": 7555,
      "TO": 7556,
      "Ġtran": 7557,
      "rov": 7558,
      "die": 7559,
      "ĠChall": 7560,
      "ĠPrin": 7561,
      "Ġstraight": 7562,
      "Ġjazz": 7563,
      "ĠRoberts": 7564,
      "DC": 7565,
      "Ġski": 7566,
      "going": 7567,
      "Ġslightly": 7568,
      "Ġcovers": 7569,
      "ĠCall": 7570,
      "Ġsoil": 7571,
      "Ġelevation": 7572,
      "isode": 7573,
      "ĠLog": 7574,
      "Ġ1932": 7575,
      "Not": 7576,
      "ĠChristmas": 7577,
      "ĠDiego": 7578,
      "ĠSport": 7579,
      "ologists": 7580,
      "Ġcollaboration": 7581,
      "Build": 7582,
      "Car": 7583,
      "ando": 7584,
      "Ġsolid": 7585,
      "ĠPeak": 7586,
      "aver": 7587,
      "Ġunderstanding": 7588,
      "Ġelimin": 7589,
      "inema": 7590,
      "bai": 7591,
      "ĠNort": 7592,
      "abilities": 7593,
      "Ġentitled": 7594,
      "Ġrecordings": 7595,
      "Ġcitizen": 7596,
      "ĠMem": 7597,
      "city": 7598,
      "Ġsumm": 7599,
      "ĠMult": 7600,
      "ĠEnergy": 7601,
      "Ġrepresents": 7602,
      "author": 7603,
      "Ġcited": 7604,
      "ĠAle": 7605,
      "ĠDog": 7606,
      "ãĤ": 7607,
      "ucle": 7608,
      "Ġemployed": 7609,
      "Ġdetermine": 7610,
      "ĠTel": 7611,
      "ĠBilly": 7612,
      "ĠDigital": 7613,
      "Ġaccur": 7614,
      "night": 7615,
      "Ġvary": 7616,
      "Ġseems": 7617,
      "Ġappeal": 7618,
      "ĠPortugal": 7619,
      "Disc": 7620,
      "Ġmart": 7621,
      "Ġhall": 7622,
      "rainian": 7623,
      "Ġhousing": 7624,
      "ĠHamp": 7625,
      "ĠImperial": 7626,
      "Ġmerch": 7627,
      "ige": 7628,
      "ĠNCAA": 7629,
      "Ġmanusc": 7630,
      "ails": 7631,
      "Ġoutput": 7632,
      "Ġmaximum": 7633,
      "Ġperc": 7634,
      "ĠPlace": 7635,
      "Ġcopy": 7636,
      "iable": 7637,
      "inburgh": 7638,
      "Ġmolec": 7639,
      "ĠHerbert": 7640,
      "Ġemployees": 7641,
      "Ġdetails": 7642,
      "David": 7643,
      "ĠKy": 7644,
      "iful": 7645,
      "ĠExecutive": 7646,
      "Ġpromote": 7647,
      "ĠPict": 7648,
      "Ġoffices": 7649,
      "ĠMoore": 7650,
      "AP": 7651,
      "obs": 7652,
      "265": 7653,
      "Ġwealth": 7654,
      "Ġsale": 7655,
      "Ġsections": 7656,
      "Ġbow": 7657,
      "Ġagent": 7658,
      "Ġtorn": 7659,
      "arks": 7660,
      "bal": 7661,
      "Ġstars": 7662,
      "Ġdepend": 7663,
      "profit": 7664,
      "AS": 7665,
      "erts": 7666,
      "ĠAntonio": 7667,
      "Ġdrink": 7668,
      "Ġ****": 7669,
      "Ġfreedom": 7670,
      "Ġancest": 7671,
      "Ġconverted": 7672,
      "teenth": 7673,
      "ourses": 7674,
      "iciency": 7675,
      "ĠWelsh": 7676,
      "Ġmm": 7677,
      "Ġ1921": 7678,
      "lag": 7679,
      "ĠThen": 7680,
      "Ġdram": 7681,
      "ĠBrazilian": 7682,
      "seud": 7683,
      "Ġcompris": 7684,
      "Ġfans": 7685,
      "uri": 7686,
      "ussian": 7687,
      "Ġdifference": 7688,
      "ĠFern": 7689,
      "Ġadult": 7690,
      "Ġdecre": 7691,
      "Ġtask": 7692,
      "ĠLang": 7693,
      "Ġgarden": 7694,
      "ĠEqu": 7695,
      "Ġbottom": 7696,
      "Ġ1910": 7697,
      "Ġsubstant": 7698,
      "Ġearliest": 7699,
      "Ġcricketer": 7700,
      "ĠJohann": 7701,
      "Wales": 7702,
      "Ġaggregate": 7703,
      "ĠSky": 7704,
      "Ġstores": 7705,
      "Ġpermanent": 7706,
      "Euro": 7707,
      "itter": 7708,
      "ĠPC": 7709,
      "orus": 7710,
      "issue": 7711,
      "imore": 7712,
      "ĠKings": 7713,
      "ĠSupport": 7714,
      "Ġinvestigation": 7715,
      "urric": 7716,
      "âĢĳ": 7717,
      "Ġmovements": 7718,
      "Ġpredecess": 7719,
      "ĠPolitical": 7720,
      "ĠRol": 7721,
      "Ġrare": 7722,
      "aved": 7723,
      "Ġlect": 7724,
      "Ġpieces": 7725,
      "andom": 7726,
      "Ġpoem": 7727,
      "Ġcombination": 7728,
      "Ġmerged": 7729,
      "publ": 7730,
      "Ġgets": 7731,
      "Ġtechnique": 7732,
      "Ġcourts": 7733,
      "ĠAfghanistan": 7734,
      "Ġnewspapers": 7735,
      "Ġreality": 7736,
      "Ġalone": 7737,
      "Ġvac": 7738,
      "Ġplot": 7739,
      "Ġwor": 7740,
      "leased": 7741,
      "Ġdates": 7742,
      "uster": 7743,
      "ĠScar": 7744,
      "ĠScot": 7745,
      "zi": 7746,
      "Ġpray": 7747,
      "ĠAnne": 7748,
      "ĠFried": 7749,
      "Ġpossibly": 7750,
      "Ġoccupied": 7751,
      "Ġentirely": 7752,
      "Ġflood": 7753,
      "1975": 7754,
      "ĠExpress": 7755,
      ".âĢĿ": 7756,
      "fiction": 7757,
      "Ġchapter": 7758,
      "Ġcomponents": 7759,
      "Ġsuffered": 7760,
      "à¸": 7761,
      "Ġtrees": 7762,
      "Â°": 7763,
      "Ġvotes": 7764,
      "Ġprohib": 7765,
      "Ġ37": 7766,
      "Ġstarts": 7767,
      "Ġrequest": 7768,
      "Ġvolunte": 7769,
      "Ġreferences": 7770,
      "ĠMississ": 7771,
      "Ġgender": 7772,
      "Ġ1912": 7773,
      "Ġsignificantly": 7774,
      "Ġpilot": 7775,
      "Ġbill": 7776,
      "eters": 7777,
      "ĠMountains": 7778,
      "wen": 7779,
      "Ġtraditions": 7780,
      "Sing": 7781,
      "otte": 7782,
      "inisters": 7783,
      "esis": 7784,
      "itals": 7785,
      "ĠSpeed": 7786,
      "Ġcontained": 7787,
      "Ġmonitor": 7788,
      "1974": 7789,
      "Pol": 7790,
      "ĠSymphony": 7791,
      "urring": 7792,
      "Ġeducated": 7793,
      "zerbai": 7794,
      "ĠAuthority": 7795,
      "áº": 7796,
      "ĠNob": 7797,
      "phone": 7798,
      "Ġcircum": 7799,
      "Rober": 7800,
      "iac": 7801,
      "power": 7802,
      "anth": 7803,
      "Ġenh": 7804,
      "Ġprotest": 7805,
      "Ġ38": 7806,
      "ussion": 7807,
      "Scotland": 7808,
      "Ġnegative": 7809,
      "ĠConnecticut": 7810,
      "mosp": 7811,
      "Ġones": 7812,
      "Ġspot": 7813,
      "Har": 7814,
      "ĠMotor": 7815,
      "ĠView": 7816,
      "Ġinterests": 7817,
      "Ġobl": 7818,
      "ĠPeace": 7819,
      "ĠPrior": 7820,
      "Ġequivalent": 7821,
      "International": 7822,
      "ĠRabbi": 7823,
      "Ġ1922": 7824,
      "ĠArmenian": 7825,
      "ocracy": 7826,
      "Ġactivist": 7827,
      "ĠKevin": 7828,
      "Ġdistributed": 7829,
      "Ġsuggests": 7830,
      "Ġmental": 7831,
      "etry": 7832,
      "ĠDNA": 7833,
      "ĠNep": 7834,
      "tered": 7835,
      "allas": 7836,
      "Ġcomposition": 7837,
      "Ġcontrolled": 7838,
      "1976": 7839,
      "ĠQueensland": 7840,
      "Ġhabit": 7841,
      "ĠRugby": 7842,
      "Ġfelt": 7843,
      "ĠBasketball": 7844,
      "ĠHouston": 7845,
      "ĠVienna": 7846,
      "Ġtrains": 7847,
      "Tr": 7848,
      "ĠJay": 7849,
      "Ġsole": 7850,
      "elson": 7851,
      "Ġfixed": 7852,
      "Ġconcluded": 7853,
      "Ġ48": 7854,
      "uki": 7855,
      "Ġburied": 7856,
      "ĠIndonesia": 7857,
      "Ġimprison": 7858,
      "urers": 7859,
      "Ġlie": 7860,
      "athy": 7861,
      "Ġwing": 7862,
      "Songs": 7863,
      "roit": 7864,
      "apse": 7865,
      "Ġlinked": 7866,
      "Ġbought": 7867,
      "ĠAqu": 7868,
      "ĠBrothers": 7869,
      "after": 7870,
      "osph": 7871,
      "Ġansw": 7872,
      "Ġappropri": 7873,
      "Ġphr": 7874,
      "Ġrevers": 7875,
      "Ġreturns": 7876,
      "Ġcandidates": 7877,
      "Ġtries": 7878,
      "Ġvice": 7879,
      "ĠSamuel": 7880,
      "Ġscript": 7881,
      "ĠWhit": 7882,
      "tsburgh": 7883,
      "ĠOnce": 7884,
      "ĠWalker": 7885,
      "ĠBrigade": 7886,
      "Ġpublishing": 7887,
      "Ġaffected": 7888,
      "heel": 7889,
      "ĠPa": 7890,
      "ĠLas": 7891,
      "Ġtypical": 7892,
      "inch": 7893,
      "Ġpreced": 7894,
      "iami": 7895,
      "boards": 7896,
      "Ġvert": 7897,
      "atern": 7898,
      "Ġairport": 7899,
      "friend": 7900,
      "oyd": 7901,
      "Ġparish": 7902,
      "Ġmembership": 7903,
      "cht": 7904,
      "Sup": 7905,
      "Ġreform": 7906,
      "ĠEvery": 7907,
      "ibn": 7908,
      "Ġagency": 7909,
      "Ġorganisation": 7910,
      "ĠNazi": 7911,
      "Ġmist": 7912,
      "Ġmeasures": 7913,
      "haps": 7914,
      "olia": 7915,
      "Ġappoint": 7916,
      "ĠâĨĲ": 7917,
      "Wh": 7918,
      "yles": 7919,
      "ĠFal": 7920,
      "Ġviews": 7921,
      "Ġ1924": 7922,
      "ĠChampions": 7923,
      "Ġherself": 7924,
      "anny": 7925,
      "November": 7926,
      "ĠThough": 7927,
      "cal": 7928,
      "ĠPsych": 7929,
      "owned": 7930,
      "Ġ75": 7931,
      "ĠModel": 7932,
      "ĠHistorical": 7933,
      "Ġsettled": 7934,
      "ĠLawrence": 7935,
      "Ġ1908": 7936,
      "ĠDead": 7937,
      "Ã©n": 7938,
      "Ġmotion": 7939,
      "AD": 7940,
      "idge": 7941,
      "igma": 7942,
      "Ġdescription": 7943,
      "iser": 7944,
      "Ġeval": 7945,
      "atabase": 7946,
      "JPG": 7947,
      "Ġitems": 7948,
      "party": 7949,
      "group": 7950,
      "Ġpolicies": 7951,
      "Ġchampions": 7952,
      "Ġgrade": 7953,
      "Musical": 7954,
      "Ġshortly": 7955,
      "ĠVolume": 7956,
      "trans": 7957,
      "Ġdoing": 7958,
      "Ġarchae": 7959,
      "Ġmac": 7960,
      "Ġproducing": 7961,
      "operation": 7962,
      "enses": 7963,
      "EL": 7964,
      "po": 7965,
      "ĠAlabama": 7966,
      "Ġassass": 7967,
      "Ġranked": 7968,
      "Ġfought": 7969,
      "Ġgall": 7970,
      "ĠNord": 7971,
      "ĠHarvard": 7972,
      "icon": 7973,
      "lete": 7974,
      "ĠConstant": 7975,
      "Ġ1931": 7976,
      "1972": 7977,
      "ĠControl": 7978,
      "Ġpod": 7979,
      "ĠCulture": 7980,
      "ĠNav": 7981,
      "ĠStaff": 7982,
      "ugoslav": 7983,
      "Ġtexts": 7984,
      "Ġincome": 7985,
      "ĠHarris": 7986,
      "Ġnetworks": 7987,
      "Ġstatement": 7988,
      "edding": 7989,
      "ocol": 7990,
      "ĠFellow": 7991,
      "ĠZh": 7992,
      "Ġdemand": 7993,
      "ĠStewart": 7994,
      "Ġcopies": 7995,
      "Ġisol": 7996,
      "Ġinstance": 7997,
      "Ġdivisions": 7998,
      "ĠHend": 7999,
      "Ġclimate": 8000,
      "dy": 8001,
      "ĠWard": 8002,
      "ictions": 8003,
      "ĠJacob": 8004,
      "amo": 8005,
      "gow": 8006,
      "Ġdesigner": 8007,
      "Ġdiam": 8008,
      "Ġcomics": 8009,
      "rate": 8010,
      "ĠBart": 8011,
      "struct": 8012,
      "Ġsurg": 8013,
      "ĠHindu": 8014,
      "Tax": 8015,
      "Ġreturning": 8016,
      "pat": 8017,
      "ĠDenmark": 8018,
      "Ste": 8019,
      "icide": 8020,
      "ĠBeat": 8021,
      "esign": 8022,
      "ĠHeb": 8023,
      "Ġneuro": 8024,
      "Ġchannels": 8025,
      "coming": 8026,
      "Ġdecor": 8027,
      "ĠAM": 8028,
      "Ġgain": 8029,
      "Ġwrite": 8030,
      "ĠMcG": 8031,
      "Ġdivers": 8032,
      "Ġparam": 8033,
      "ĠPeters": 8034,
      "ĠOpera": 8035,
      "Ġheavily": 8036,
      "green": 8037,
      "ĠST": 8038,
      "ĠKaz": 8039,
      "Ġchoice": 8040,
      "Fil": 8041,
      "Ġincorporated": 8042,
      "Ġdisestablished": 8043,
      "ĠUtah": 8044,
      "Ġmoment": 8045,
      "ĠAlban": 8046,
      "Ġpron": 8047,
      "266": 8048,
      "February": 8049,
      "unc": 8050,
      "ectors": 8051,
      "Ġprovincial": 8052,
      "gers": 8053,
      "Ġnominated": 8054,
      "Ġdropped": 8055,
      "à¥į": 8056,
      "ĠGon": 8057,
      "Ġ49": 8058,
      "Ã¥": 8059,
      "ermont": 8060,
      "ĠFinland": 8061,
      "fe": 8062,
      "ĠHug": 8063,
      "Ġorient": 8064,
      "len": 8065,
      "names": 8066,
      "Beetles": 8067,
      "Ãł": 8068,
      "Ġmanga": 8069,
      "Ġexternal": 8070,
      "GBT": 8071,
      "ellectual": 8072,
      "Ġmil": 8073,
      "ĠTaiwan": 8074,
      "rant": 8075,
      "asure": 8076,
      "thm": 8077,
      "1978": 8078,
      "arma": 8079,
      "Ġworldwide": 8080,
      "Ġnotably": 8081,
      "James": 8082,
      "ĠPremier": 8083,
      "Ġ=====": 8084,
      "ĠEdinburgh": 8085,
      "Ġserious": 8086,
      "rete": 8087,
      "Ġbran": 8088,
      "Ġpurposes": 8089,
      "Ġlosing": 8090,
      "Ġsand": 8091,
      "ĠConvention": 8092,
      "Ġmagazines": 8093,
      "Ġpromotion": 8094,
      "Ġcrisis": 8095,
      "Ġparticipation": 8096,
      "udi": 8097,
      "Ġinvestment": 8098,
      "Ġwitness": 8099,
      "Ġ1926": 8100,
      "ĠAgency": 8101,
      "Ġfunds": 8102,
      "inian": 8103,
      "pm": 8104,
      "ĠMerc": 8105,
      "url": 8106,
      "ĠBaseball": 8107,
      "1945": 8108,
      "elo": 8109,
      "Ġhighlight": 8110,
      "1973": 8111,
      "Îµ": 8112,
      "ĠSin": 8113,
      "ĠSection": 8114,
      "Ġda": 8115,
      "ĠHit": 8116,
      "ĠNeg": 8117,
      "area": 8118,
      "ĠHeritage": 8119,
      "EE": 8120,
      "Ġdrawn": 8121,
      "orrow": 8122,
      "stances": 8123,
      "ĠIron": 8124,
      "Ġreact": 8125,
      "ĠVar": 8126,
      "Ġcosts": 8127,
      "Ġconcerns": 8128,
      "Ġadvantage": 8129,
      "HS": 8130,
      "Ġscheduled": 8131,
      "ĠKo": 8132,
      "ĠIns": 8133,
      "Ġskin": 8134,
      "Career": 8135,
      "Ġpione": 8136,
      "Ġwinter": 8137,
      "Ġtrying": 8138,
      "Ġturns": 8139,
      "boy": 8140,
      "opter": 8141,
      "ĠVin": 8142,
      "eps": 8143,
      "ĠGlas": 8144,
      "Ġ1917": 8145,
      ";\"|": 8146,
      "Ġreven": 8147,
      "enez": 8148,
      "Ġtermin": 8149,
      "ĠDa": 8150,
      "ĠFive": 8151,
      "iph": 8152,
      "Ġreceiving": 8153,
      "unting": 8154,
      "ĠJimmy": 8155,
      "sea": 8156,
      "Ġstarring": 8157,
      "Ġastron": 8158,
      "Ġsell": 8159,
      "ĠChristopher": 8160,
      "ĠMedicine": 8161,
      "Ġ~": 8162,
      "ĠDak": 8163,
      "Ġheard": 8164,
      "ĠGrant": 8165,
      "ĠStandard": 8166,
      "oca": 8167,
      "DF": 8168,
      "ĠOak": 8169,
      "Ġwound": 8170,
      "ĠFather": 8171,
      "Ġ42": 8172,
      "Ġbroke": 8173,
      "ĠMeanwhile": 8174,
      "Ġconsisting": 8175,
      "ĠLank": 8176,
      "ĠNote": 8177,
      "ificial": 8178,
      "ĠYears": 8179,
      "olar": 8180,
      "Ġalt": 8181,
      "oda": 8182,
      "Ġselection": 8183,
      "Ġrepeated": 8184,
      "Ġexecuted": 8185,
      "ĠAustrian": 8186,
      "Ġvillages": 8187,
      "Ġprofile": 8188,
      "Ġá": 8189,
      "father": 8190,
      "ĠFall": 8191,
      "Ġsixth": 8192,
      "Official": 8193,
      "lie": 8194,
      "Ġwave": 8195,
      "encing": 8196,
      "ashi": 8197,
      "Ġdescribe": 8198,
      "Ġstorage": 8199,
      "Ġ##": 8200,
      "Ġdelay": 8201,
      "Donald": 8202,
      "Week": 8203,
      "care": 8204,
      "song": 8205,
      "isted": 8206,
      "amental": 8207,
      "iop": 8208,
      "Ġinform": 8209,
      "Ġdies": 8210,
      "ĠDaily": 8211,
      "Ġotherwise": 8212,
      "Ġterritories": 8213,
      "Ġsomew": 8214,
      "Ġcrown": 8215,
      "ĠVice": 8216,
      "ĠColomb": 8217,
      "Ġcompete": 8218,
      "Ġpup": 8219,
      "Ġzone": 8220,
      "ouver": 8221,
      "achelor": 8222,
      "ĠRang": 8223,
      "ouses": 8224,
      "ĠUpon": 8225,
      "Af": 8226,
      "ĠInvest": 8227,
      "Ġoperator": 8228,
      "Ġdesigns": 8229,
      "Ġaccused": 8230,
      "ĠBelgium": 8231,
      "mu": 8232,
      "ĠGram": 8233,
      "Ġhousehold": 8234,
      "endar": 8235,
      "Ġkid": 8236,
      "Ġinstitution": 8237,
      "Ġpros": 8238,
      "orough": 8239,
      "Ġ1923": 8240,
      "ĠPalace": 8241,
      "oni": 8242,
      "orb": 8243,
      "cho": 8244,
      "ferred": 8245,
      "ĠPhill": 8246,
      "Ġcrowd": 8247,
      "Ġmir": 8248,
      "ĠPref": 8249,
      "itual": 8250,
      "ĠTamil": 8251,
      "vements": 8252,
      "Ø±": 8253,
      "orf": 8254,
      "ĠFel": 8255,
      "Ġ43": 8256,
      "Ġpull": 8257,
      "ĠRub": 8258,
      "ĠGun": 8259,
      "ĠUpper": 8260,
      "Ġensure": 8261,
      "Ġprecip": 8262,
      "tion": 8263,
      "BI": 8264,
      "Mich": 8265,
      "Ġaer": 8266,
      "iticus": 8267,
      "ĠAzerbai": 8268,
      "ĠCEO": 8269,
      "ĠHell": 8270,
      "ourg": 8271,
      "eoples": 8272,
      "Ġprime": 8273,
      "Ġmedicine": 8274,
      "England": 8275,
      "ĠOperation": 8276,
      "omas": 8277,
      "264": 8278,
      "Ġapart": 8279,
      "Ġpersons": 8280,
      "EP": 8281,
      "ĠHold": 8282,
      "ailand": 8283,
      "Ġgoods": 8284,
      "Ġeasily": 8285,
      "oga": 8286,
      "Ġvenue": 8287,
      "Ġchurches": 8288,
      "ĠArn": 8289,
      "ĠClin": 8290,
      "ĠPopulation": 8291,
      "OL": 8292,
      "ecture": 8293,
      "appy": 8294,
      "Ġuniversities": 8295,
      "Ġregistered": 8296,
      "Ġenjoy": 8297,
      "112": 8298,
      "rons": 8299,
      "ĠSev": 8300,
      "Ġarmed": 8301,
      "Ġfactory": 8302,
      "Ġlot": 8303,
      "MI": 8304,
      "uilt": 8305,
      "ĠOur": 8306,
      "Ġsymb": 8307,
      "dale": 8308,
      "atherine": 8309,
      "ĠMississippi": 8310,
      "arus": 8311,
      "Ġsail": 8312,
      "Ġstring": 8313,
      "ĠDonald": 8314,
      "Ġabandoned": 8315,
      "Per": 8316,
      "oba": 8317,
      "exp": 8318,
      "ilarly": 8319,
      "Ġrepresentatives": 8320,
      "door": 8321,
      "Ġbond": 8322,
      "Ġtower": 8323,
      "ĠDance": 8324,
      "ĠGT": 8325,
      "ĠApple": 8326,
      "ĠBanglades": 8327,
      "Ġtrav": 8328,
      "ĠBoys": 8329,
      "1967": 8330,
      "ĠOrganization": 8331,
      "Ġbudget": 8332,
      "Orig": 8333,
      "Ġsum": 8334,
      "ĠReserve": 8335,
      "ĠCapital": 8336,
      "ĠSystems": 8337,
      "ĠLanc": 8338,
      "Ġnearest": 8339,
      "Ġpole": 8340,
      "eget": 8341,
      "Ġdiagn": 8342,
      "ĠAdditionally": 8343,
      "amics": 8344,
      "repreneur": 8345,
      "coh": 8346,
      "Ġbra": 8347,
      "Ġsession": 8348,
      "ented": 8349,
      "odge": 8350,
      "ugar": 8351,
      "Ġdifferences": 8352,
      "ĠMcK": 8353,
      "ĠCarn": 8354,
      "ĠTy": 8355,
      "Ġguest": 8356,
      "Background": 8357,
      "Ġfine": 8358,
      "ĠNatural": 8359,
      "ĠAC": 8360,
      "Ġagencies": 8361,
      "1971": 8362,
      "ĠRap": 8363,
      "ivan": 8364,
      "ĠLanguage": 8365,
      "ĠKon": 8366,
      "ĠMrs": 8367,
      "Ġjourney": 8368,
      "Cent": 8369,
      "opy": 8370,
      "Ġenemy": 8371,
      "ĠCode": 8372,
      "ĠNeb": 8373,
      "terior": 8374,
      "ĠKap": 8375,
      "mont": 8376,
      "estyle": 8377,
      "Ġdescend": 8378,
      "Public": 8379,
      "ĠHere": 8380,
      "osite": 8381,
      "Ġrepresentation": 8382,
      "ĠBillboard": 8383,
      "Ġconstituency": 8384,
      "Å¾": 8385,
      "1969": 8386,
      "BN": 8387,
      "Port": 8388,
      "Ġfrag": 8389,
      "ĠSi": 8390,
      "Ġcoup": 8391,
      "Ġkil": 8392,
      "ĠBuck": 8393,
      "Ġvide": 8394,
      "apping": 8395,
      "Ġtesting": 8396,
      "ĠPrincess": 8397,
      "FM": 8398,
      "eria": 8399,
      "ario": 8400,
      "escription": 8401,
      "Ġmort": 8402,
      "Ġthemes": 8403,
      "iverpool": 8404,
      "Ġ(;": 8405,
      "Indian": 8406,
      "astery": 8407,
      "Ġrefuge": 8408,
      "ĠSalv": 8409,
      "Ġmanufacturing": 8410,
      "ĠKan": 8411,
      "ellite": 8412,
      "umbers": 8413,
      "ĠCel": 8414,
      "Ġsynthes": 8415,
      "ships": 8416,
      "umi": 8417,
      "ĠEnt": 8418,
      "ean": 8419,
      "xi": 8420,
      "ĠCP": 8421,
      "urday": 8422,
      "ĠIowa": 8423,
      "Ġrecept": 8424,
      "Ġpassing": 8425,
      "},": 8426,
      "ĠSah": 8427,
      "ĠHop": 8428,
      "ĠLux": 8429,
      "ĠWa": 8430,
      "ĠEver": 8431,
      "Ġcharts": 8432,
      "mod": 8433,
      "borough": 8434,
      "unch": 8435,
      "ĠStudios": 8436,
      "ĠDean": 8437,
      "Ġmedium": 8438,
      "Ġibn": 8439,
      "plate": 8440,
      "ĠMembers": 8441,
      "bat": 8442,
      "nia": 8443,
      "otan": 8444,
      "acent": 8445,
      "abil": 8446,
      "Ġproteins": 8447,
      "Film": 8448,
      "ÙĪ": 8449,
      "ĠBruce": 8450,
      "opal": 8451,
      "ĠArk": 8452,
      "Ġowners": 8453,
      "Ġdegrees": 8454,
      "angle": 8455,
      "Ġmedieval": 8456,
      "Ġfrequency": 8457,
      "soft": 8458,
      "Ġcasual": 8459,
      "Robert": 8460,
      "Ġtub": 8461,
      "Ġtransmission": 8462,
      "ĠHungarian": 8463,
      ";\"": 8464,
      "oro": 8465,
      "emen": 8466,
      "Television": 8467,
      "ml": 8468,
      "uy": 8469,
      "Ġmobile": 8470,
      "aments": 8471,
      "Ġanime": 8472,
      "Ġretire": 8473,
      "Ġheritage": 8474,
      "Ġsituated": 8475,
      "Ġ64": 8476,
      "Ġbusinessman": 8477,
      "Ġaccompan": 8478,
      "ounce": 8479,
      "Ã¶r": 8480,
      "commod": 8481,
      "Ġfleet": 8482,
      "Ġresidential": 8483,
      "stad": 8484,
      "anne": 8485,
      "Ġinhabit": 8486,
      "iah": 8487,
      "onomy": 8488,
      "IP": 8489,
      "ĠBiography": 8490,
      "Ġ1925": 8491,
      "ĠBroadcast": 8492,
      "Ġha": 8493,
      "ĠRest": 8494,
      "Ġliqu": 8495,
      "argo": 8496,
      "mith": 8497,
      "ensions": 8498,
      "ĠArena": 8499,
      "formance": 8500,
      "Writ": 8501,
      "rong": 8502,
      "ĠHolly": 8503,
      "Ġsuccessfully": 8504,
      "Ġnations": 8505,
      "Ġstating": 8506,
      "Ġpresidential": 8507,
      "grade": 8508,
      "1966": 8509,
      "ĠÃĹ": 8510,
      "ĠPear": 8511,
      "ifer": 8512,
      "Ġrain": 8513,
      "ĠAlliance": 8514,
      "Ġcategories": 8515,
      "raf": 8516,
      "ĠSac": 8517,
      "ĠRan": 8518,
      "acle": 8519,
      "watch": 8520,
      "Ġmanner": 8521,
      "Ġroads": 8522,
      "Ġdefinition": 8523,
      "Ã´": 8524,
      "atically": 8525,
      "ĠBomb": 8526,
      "ĠAnti": 8527,
      "Ġcapture": 8528,
      "ĠSax": 8529,
      "ĠSpirit": 8530,
      "Ġstress": 8531,
      "Ġagricultural": 8532,
      "Ġpushpin": 8533,
      "Ġsolution": 8534,
      "rehens": 8535,
      "ancouver": 8536,
      "ĠGeography": 8537,
      "Ġengaged": 8538,
      "Ġweather": 8539,
      "Ġfal": 8540,
      "Ġwheel": 8541,
      "ĠNorman": 8542,
      "pan": 8543,
      "vol": 8544,
      "orial": 8545,
      "ĠWy": 8546,
      "Ġ44": 8547,
      "tenance": 8548,
      "ĠOm": 8549,
      "Ġquestions": 8550,
      "body": 8551,
      "lease": 8552,
      "ĠSR": 8553,
      "ĠElement": 8554,
      "Ġprinc": 8555,
      "Ġquite": 8556,
      "sterdam": 8557,
      "ÙĨ": 8558,
      "ĠFarm": 8559,
      "Ġwhy": 8560,
      "ersonnel": 8561,
      "Ġvalid": 8562,
      "Death": 8563,
      "ĠBaltimore": 8564,
      "Ġcodes": 8565,
      "ĠProm": 8566,
      "ĠHills": 8567,
      "ifies": 8568,
      "erves": 8569,
      "oked": 8570,
      "Ġexpert": 8571,
      "ĠDJ": 8572,
      "ĠEdition": 8573,
      "wall": 8574,
      "ribed": 8575,
      "Ġpremier": 8576,
      "Ġthick": 8577,
      "Ġthrow": 8578,
      "result": 8579,
      "Ġextension": 8580,
      "ĠPittsburgh": 8581,
      "alty": 8582,
      "ontin": 8583,
      "Ġexplos": 8584,
      "ĠBrew": 8585,
      "ĠPas": 8586,
      "roke": 8587,
      "Ġimag": 8588,
      "ĠSign": 8589,
      "ĠBush": 8590,
      "ĠDyn": 8591,
      "ĠJess": 8592,
      "Academ": 8593,
      "bridge": 8594,
      "Ġfile": 8595,
      "Ġengines": 8596,
      "ĠMorgan": 8597,
      "ÅŁ": 8598,
      "ĠCare": 8599,
      "rip": 8600,
      "Ġ150": 8601,
      "ĠSwiss": 8602,
      "ĠMunicipality": 8603,
      "Roman": 8604,
      "Ġfocuses": 8605,
      "bishop": 8606,
      "yers": 8607,
      "oria": 8608,
      "isition": 8609,
      "istant": 8610,
      "atters": 8611,
      "heastern": 8612,
      "1965": 8613,
      "Ġgrant": 8614,
      "ĠHawai": 8615,
      "Ġscheme": 8616,
      "final": 8617,
      "}^": 8618,
      "ĠMission": 8619,
      "Ġaired": 8620,
      "onian": 8621,
      "ĠCentury": 8622,
      "gam": 8623,
      "Ãª": 8624,
      "Ġstorm": 8625,
      "rypt": 8626,
      "Ġinstalled": 8627,
      "Ġmarketing": 8628,
      "ĠCathedral": 8629,
      "ĠProp": 8630,
      "Ġphilos": 8631,
      "'m": 8632,
      "Ùħ": 8633,
      "alpha": 8634,
      "ĠMetro": 8635,
      "gorith": 8636,
      "ucks": 8637,
      "Ġcommitted": 8638,
      "Ġterminus": 8639,
      "ĠCommunist": 8640,
      "Dem": 8641,
      "Ġ1911": 8642,
      "ĠEconomic": 8643,
      "ĠPil": 8644,
      "Pop": 8645,
      "ĠRow": 8646,
      "ĠCru": 8647,
      "ĠNet": 8648,
      "ĠAbout": 8649,
      "ĠChron": 8650,
      "ĠTransl": 8651,
      "ribute": 8652,
      "Ġlocomot": 8653,
      "Ġparticipate": 8654,
      "ĠMetropolitan": 8655,
      "Ġaudio": 8656,
      "Ġframework": 8657,
      "erb": 8658,
      "ĠRound": 8659,
      "ĠLaur": 8660,
      "Ġaspects": 8661,
      "Nor": 8662,
      "ĠMiami": 8663,
      "mund": 8664,
      "1964": 8665,
      "pi": 8666,
      "Ġroutes": 8667,
      "Ġattached": 8668,
      "jab": 8669,
      "Ġfaced": 8670,
      "Ġprocessing": 8671,
      "ĠBrooklyn": 8672,
      "Ġauthors": 8673,
      "ĠDemocr": 8674,
      "Ġdoll": 8675,
      "Ġcolour": 8676,
      "SE": 8677,
      "via": 8678,
      "ĠAssoci": 8679,
      "ĠCooper": 8680,
      "ĠMPs": 8681,
      "Ġwine": 8682,
      "ĠChamber": 8683,
      "Ġteach": 8684,
      "archive": 8685,
      "Ġcovering": 8686,
      "Ġpurchase": 8687,
      "Ñĥ": 8688,
      "Ġphotograph": 8689,
      "ĠGirls": 8690,
      "Ïĥ": 8691,
      "Ġsave": 8692,
      "Ġbirds": 8693,
      "Ġvisited": 8694,
      "George": 8695,
      "eon": 8696,
      "start": 8697,
      "Ġ1913": 8698,
      "ĠMars": 8699,
      "ĠSeason": 8700,
      "ĠBorough": 8701,
      "Ġrejected": 8702,
      "Ġ41": 8703,
      "Ġstreets": 8704,
      "Ġprofession": 8705,
      "ĠAngl": 8706,
      "Ġdomain": 8707,
      "ĠVillage": 8708,
      "Buildings": 8709,
      "ĠDub": 8710,
      "Ġsecretary": 8711,
      "Ġentrance": 8712,
      "Ġparticipants": 8713,
      "leveland": 8714,
      "ĠPra": 8715,
      "empt": 8716,
      "Ġupd": 8717,
      "Ġownership": 8718,
      "ĠFlag": 8719,
      "Ġstanding": 8720,
      "ĠBaronet": 8721,
      "Ġcharges": 8722,
      "Ġdig": 8723,
      "Ġdiscip": 8724,
      "ĠAgain": 8725,
      "Ġpicture": 8726,
      "ĠWW": 8727,
      "agram": 8728,
      "scale": 8729,
      "ĠHorn": 8730,
      "ĠWright": 8731,
      "ĠScient": 8732,
      "Ġdirectors": 8733,
      "Ġanimated": 8734,
      "Ġgang": 8735,
      "ĠAlfred": 8736,
      "ele": 8737,
      "ĠRain": 8738,
      "Ġlies": 8739,
      "Ġcharged": 8740,
      "ĠRyan": 8741,
      "Ġgrounds": 8742,
      "Ġcheck": 8743,
      "Ġneighbour": 8744,
      "ĠMichel": 8745,
      "zo": 8746,
      "ĪĴ": 8747,
      "ser": 8748,
      "Ġedge": 8749,
      "ĠMagn": 8750,
      "ĠUkrainian": 8751,
      "Ġexperienced": 8752,
      "Biography": 8753,
      "asts": 8754,
      "Ġevolution": 8755,
      "ĠMovement": 8756,
      "eo": 8757,
      "Ġster": 8758,
      "ĠCher": 8759,
      "asi": 8760,
      "oviÄĩ": 8761,
      "enson": 8762,
      "ĠBlood": 8763,
      "mingham": 8764,
      "Ġplanet": 8765,
      "utation": 8766,
      "Ġspaces": 8767,
      "Ġidentify": 8768,
      "hand": 8769,
      "wid": 8770,
      "oustic": 8771,
      "ĠAgric": 8772,
      "ãģ": 8773,
      "Ġrates": 8774,
      "Ġboat": 8775,
      "ĠDetroit": 8776,
      "Works": 8777,
      "Ġwatch": 8778,
      "orses": 8779,
      "ĠDVD": 8780,
      "Ġ1916": 8781,
      "Ġproved": 8782,
      "who": 8783,
      "ĠLane": 8784,
      "ĠNi": 8785,
      "ĠNative": 8786,
      "ĠMoroc": 8787,
      "itis": 8788,
      "Arch": 8789,
      "ĠGoogle": 8790,
      "Ġtwelve": 8791,
      "Report": 8792,
      "cing": 8793,
      "finals": 8794,
      "Ġ1915": 8795,
      "ĠOri": 8796,
      "Ġresidence": 8797,
      "Reg": 8798,
      "Ġrelative": 8799,
      "Ġcapable": 8800,
      "Ġmanif": 8801,
      "Ġdriving": 8802,
      "ĠYugoslav": 8803,
      "Japanese": 8804,
      "ĠCer": 8805,
      "ĠFisher": 8806,
      "illo": 8807,
      "ĠStev": 8808,
      "Ġ52": 8809,
      "such": 8810,
      "Ġfestivals": 8811,
      "ĠThailand": 8812,
      "Ġjump": 8813,
      "Ġresponsibility": 8814,
      "ĠUnlike": 8815,
      "amps": 8816,
      "ancer": 8817,
      "Ġinvolvement": 8818,
      "Ġcaptain": 8819,
      "clopedia": 8820,
      "Ġbranches": 8821,
      "Life": 8822,
      "iated": 8823,
      "inations": 8824,
      "Ġeye": 8825,
      "ĠLithuan": 8826,
      "insula": 8827,
      "Ġanniversary": 8828,
      "rieved": 8829,
      "rot": 8830,
      "Ġmarkets": 8831,
      "uh": 8832,
      "ĠDallas": 8833,
      "ĠCollection": 8834,
      "ĠAlexand": 8835,
      "ĠGraham": 8836,
      "eron": 8837,
      "Ġpric": 8838,
      "Ġclassified": 8839,
      "Ġpaintings": 8840,
      "Ġlicense": 8841,
      "ĠGlasgow": 8842,
      "ĠCultural": 8843,
      "ĠRomanian": 8844,
      "alm": 8845,
      "alia": 8846,
      "Ġformally": 8847,
      "Ġtrained": 8848,
      "Ġpredecessor": 8849,
      "etime": 8850,
      "ĠGulf": 8851,
      "away": 8852,
      "Ġbriefly": 8853,
      "ĠHampshire": 8854,
      "ĠFab": 8855,
      "ĠChristianity": 8856,
      "ĠBuddhist": 8857,
      "Ġentertainment": 8858,
      "tr": 8859,
      "ĠSaints": 8860,
      "ĠTol": 8861,
      "ĠChem": 8862,
      "ĠAy": 8863,
      "ulating": 8864,
      "aja": 8865,
      "ĠPeru": 8866,
      "ĠHotel": 8867,
      "roph": 8868,
      "--------": 8869,
      "Ġratio": 8870,
      "RI": 8871,
      "def": 8872,
      "jamin": 8873,
      "Ġprize": 8874,
      "Video": 8875,
      "ÅĦ": 8876,
      "Ġarrest": 8877,
      "Ġrenew": 8878,
      "Ġreviews": 8879,
      "CH": 8880,
      "ĠABC": 8881,
      "ĠTele": 8882,
      "Ġrowspan": 8883,
      "ners": 8884,
      "ĠLam": 8885,
      "Ġsingers": 8886,
      "Ġexperiences": 8887,
      "ĠKit": 8888,
      "ĠArticle": 8889,
      "ĠMontreal": 8890,
      "Ġhomes": 8891,
      "ĠLimited": 8892,
      "country": 8893,
      "raska": 8894,
      "enberg": 8895,
      "Ġaccounts": 8896,
      "Ġ1890": 8897,
      "Former": 8898,
      "ĠAnna": 8899,
      "Ġregime": 8900,
      "Ġtempor": 8901,
      "Ġcollections": 8902,
      "DS": 8903,
      "lock": 8904,
      "link": 8905,
      "script": 8906,
      "nik": 8907,
      "Ġtall": 8908,
      "Ġwalls": 8909,
      "ĠAT": 8910,
      "ogether": 8911,
      "Ïģ": 8912,
      "ĠFM": 8913,
      "antly": 8914,
      "ĠMaced": 8915,
      "uality": 8916,
      "Ġlayer": 8917,
      "Ġgene": 8918,
      "ĠFormer": 8919,
      "ente": 8920,
      "Ġorchestra": 8921,
      "Ġcastle": 8922,
      "ĠAlt": 8923,
      "ĠIsa": 8924,
      "Ġbusinesses": 8925,
      "Ġimproved": 8926,
      "EFA": 8927,
      "Ġweak": 8928,
      "ĠTorah": 8929,
      "Ġcourses": 8930,
      "ĠVancouver": 8931,
      "izations": 8932,
      "Ġnothing": 8933,
      "pert": 8934,
      "ĠHas": 8935,
      "avel": 8936,
      "Ġaccommod": 8937,
      "ĠMorris": 8938,
      "know": 8939,
      "png": 8940,
      "Ġign": 8941,
      "ĠLiverpool": 8942,
      "Ġassistance": 8943,
      "Ġintent": 8944,
      "ĠLead": 8945,
      "ÈĻ": 8946,
      "ido": 8947,
      "ushed": 8948,
      "essions": 8949,
      "Ġrepro": 8950,
      "ĠMadrid": 8951,
      "aughters": 8952,
      "Ġ47": 8953,
      "ĠAP": 8954,
      "ĠCompet": 8955,
      "Leg": 8956,
      "ĠThompson": 8957,
      "zero": 8958,
      "ĠSerbia": 8959,
      "music": 8960,
      "Ital": 8961,
      "ĠBull": 8962,
      "Ġjournalists": 8963,
      "Paul": 8964,
      "Ġpool": 8965,
      "Ġopportunity": 8966,
      "Europe": 8967,
      "atche": 8968,
      "Ġislands": 8969,
      "ĠKitt": 8970,
      "offs": 8971,
      "pread": 8972,
      "enos": 8973,
      "ĠCole": 8974,
      "intend": 8975,
      "ĠSeven": 8976,
      "ĠIan": 8977,
      "Ġinterior": 8978,
      "RO": 8979,
      "Ġcarrying": 8980,
      "ĠByzantine": 8981,
      "Ġtornado": 8982,
      "ospel": 8983,
      "Ġillegal": 8984,
      "Rel": 8985,
      "ders": 8986,
      "yg": 8987,
      "ĠRoc": 8988,
      "Ġatmosp": 8989,
      "Ġorganisations": 8990,
      "idespread": 8991,
      "ĠGran": 8992,
      "Ġ55": 8993,
      "Ġdepending": 8994,
      "Ġpersonality": 8995,
      "ester": 8996,
      "Ġmob": 8997,
      "anton": 8998,
      "acts": 8999,
      "Ġmining": 9000,
      "Ġpopularity": 9001,
      "ĠMind": 9002,
      "ocument": 9003,
      "auc": 9004,
      "craft": 9005,
      "Ġtail": 9006,
      "ĠDragon": 9007,
      "Ġadvis": 9008,
      "Ġinvolves": 9009,
      "ĠAction": 9010,
      "ĠPlant": 9011,
      "Ġsevere": 9012,
      "Ġdebate": 9013,
      "Ġaimed": 9014,
      "Ġexisted": 9015,
      "anner": 9016,
      "ĠBox": 9017,
      "ĠUrban": 9018,
      "DE": 9019,
      "ĠEmer": 9020,
      "aku": 9021,
      "Ġdepth": 9022,
      "Ġincreasingly": 9023,
      "total": 9024,
      "ducational": 9025,
      "1963": 9026,
      "SW": 9027,
      "aire": 9028,
      "Ġboys": 9029,
      "ĠHungary": 9030,
      "ME": 9031,
      "ulum": 9032,
      "Ġpublisher": 9033,
      "Ã¨re": 9034,
      "asp": 9035,
      "ĠBeck": 9036,
      "Ġdelivered": 9037,
      "Ev": 9038,
      "Ġthin": 9039,
      "ĠRussell": 9040,
      "bel": 9041,
      "position": 9042,
      "umbent": 9043,
      "Ġachieve": 9044,
      "uous": 9045,
      "Ġaf": 9046,
      "ĠLeban": 9047,
      "Ġcommissioned": 9048,
      "400": 9049,
      "ĠType": 9050,
      "Ġhour": 9051,
      "Ġartistic": 9052,
      "Ġvolumes": 9053,
      "ĠHonor": 9054,
      "Cal": 9055,
      "rt": 9056,
      "ĠNam": 9057,
      "Ġlingu": 9058,
      "sect": 9059,
      "ĠCarter": 9060,
      "Ġrelationships": 9061,
      "Ġdress": 9062,
      "ureau": 9063,
      "ĠRomania": 9064,
      "iya": 9065,
      "Ġnort": 9066,
      "scope": 9067,
      "iege": 9068,
      "Ġelectron": 9069,
      "bn": 9070,
      "olph": 9071,
      "Ġagents": 9072,
      "Ġhotel": 9073,
      "Ġjurisdiction": 9074,
      "Ġduties": 9075,
      "ĠData": 9076,
      "Ġteachers": 9077,
      "Ġinjured": 9078,
      "Ġpatterns": 9079,
      "bul": 9080,
      "ĠSecret": 9081,
      "ĠYouT": 9082,
      "Rich": 9083,
      "atri": 9084,
      "chell": 9085,
      "ĠSenior": 9086,
      "1950": 9087,
      "ĠCarlos": 9088,
      "Ð²": 9089,
      "ĠMong": 9090,
      "Ġrich": 9091,
      "ĠVic": 9092,
      "Ġconsecutive": 9093,
      "Ġencounter": 9094,
      "ĠLiberal": 9095,
      "atar": 9096,
      "ĠSpe": 9097,
      "Ġegg": 9098,
      "Ġinvited": 9099,
      "ĠPolicy": 9100,
      "ĠNova": 9101,
      "ĠLud": 9102,
      "Ġpoets": 9103,
      "partial": 9104,
      "ĠRobin": 9105,
      "Ġopinion": 9106,
      "eri": 9107,
      "ĠGw": 9108,
      "ĠOnline": 9109,
      "Ġpatient": 9110,
      "East": 9111,
      "ĠTob": 9112,
      "Ġprince": 9113,
      "Ġqualified": 9114,
      "ĠMall": 9115,
      "Ġcommit": 9116,
      "Ġ1344": 9117,
      "ĠVik": 9118,
      "Ġmetres": 9119,
      "ĠMayor": 9120,
      "Ġadaptation": 9121,
      "Ġadvertising": 9122,
      "Ġphenomen": 9123,
      "ĠCob": 9124,
      "ĠHab": 9125,
      "Ġrend": 9126,
      "Ġunf": 9127,
      "Ġmeets": 9128,
      "Ġsustain": 9129,
      "scious": 9130,
      "Ġritual": 9131,
      "ĠMarie": 9132,
      "Ġlocalities": 9133,
      "Ġboundary": 9134,
      "ĠCuba": 9135,
      "Pres": 9136,
      "compl": 9137,
      "Ġfranchise": 9138,
      "Ġtennis": 9139,
      "itable": 9140,
      "Ġchallenge": 9141,
      "ĠAtlanta": 9142,
      "ĠLiterature": 9143,
      "Ġprepared": 9144,
      "Est": 9145,
      "imm": 9146,
      "riel": 9147,
      "Ġ46": 9148,
      "Ġassumed": 9149,
      "Ġbroken": 9150,
      "Ġhistorians": 9151,
      "Ġcamera": 9152,
      "Ġham": 9153,
      "Ġreaching": 9154,
      "ĠLad": 9155,
      "merce": 9156,
      "Ġthousands": 9157,
      "UC": 9158,
      "ripts": 9159,
      "Ġflat": 9160,
      "Ġvariant": 9161,
      "Scott": 9162,
      "ĠLieutenant": 9163,
      "Em": 9164,
      "cd": 9165,
      "ĠBowl": 9166,
      "Ġcolleges": 9167,
      "ambda": 9168,
      "Ġbroader": 9169,
      "RT": 9170,
      "ffee": 9171,
      "ĠJohnny": 9172,
      "ipping": 9173,
      "loss": 9174,
      "wright": 9175,
      "original": 9176,
      "Ġinput": 9177,
      "leton": 9178,
      "ĠAdams": 9179,
      "atures": 9180,
      "idency": 9181,
      "oka": 9182,
      "Ġseconds": 9183,
      "Ġsubjects": 9184,
      "fall": 9185,
      "ĠNature": 9186,
      "ĠHebrew": 9187,
      "ĠPage": 9188,
      "Ġpoems": 9189,
      "Ġdrop": 9190,
      "Ġdoor": 9191,
      "Ġprecipitation": 9192,
      "ĠMort": 9193,
      "ĠChapter": 9194,
      "Ġaged": 9195,
      "opped": 9196,
      "ĠSudan": 9197,
      "Ġdream": 9198,
      "aste": 9199,
      "ĠRef": 9200,
      "iw": 9201,
      "ayer": 9202,
      "ĠTrail": 9203,
      "enezuel": 9204,
      "itations": 9205,
      "rague": 9206,
      "ĠCampbell": 9207,
      "ĠCle": 9208,
      "Ġ250": 9209,
      "ĠSpr": 9210,
      "Ġqualify": 9211,
      "ifican": 9212,
      "Ġdecade": 9213,
      "Sub": 9214,
      "ĠArchitecture": 9215,
      "brid": 9216,
      "Ġclassic": 9217,
      "Ġmessage": 9218,
      "Ġ120": 9219,
      "ĠMond": 9220,
      "ĠProtest": 9221,
      "Ø§ÙĦ": 9222,
      "Ġcorporate": 9223,
      "ilia": 9224,
      "ĠPir": 9225,
      "ĠTheod": 9226,
      "Ġannually": 9227,
      "ĠOfficer": 9228,
      "One": 9229,
      "hynch": 9230,
      "ĠMason": 9231,
      "Ġplane": 9232,
      "Ġintegrated": 9233,
      "Ġaccompanied": 9234,
      ":\"": 9235,
      "ĠFrid": 9236,
      "ĠBed": 9237,
      "rystal": 9238,
      "yard": 9239,
      "ĠGary": 9240,
      "Ġexpedition": 9241,
      "ĠSaturday": 9242,
      "ĠRena": 9243,
      "Ġdeleg": 9244,
      "ĠAustin": 9245,
      "uka": 9246,
      "ĠRegister": 9247,
      "arant": 9248,
      "ashed": 9249,
      "ĠLower": 9250,
      "ĠVel": 9251,
      "aneous": 9252,
      "Ġ×": 9253,
      "Ġresolution": 9254,
      "Ġframe": 9255,
      "ĠPor": 9256,
      "ivated": 9257,
      "Ġcalling": 9258,
      "ificance": 9259,
      "rors": 9260,
      "Ġtor": 9261,
      "ĠGri": 9262,
      "Ġjun": 9263,
      "ĠMarvel": 9264,
      "osex": 9265,
      "Ġcontinuous": 9266,
      "Part": 9267,
      "making": 9268,
      "note": 9269,
      "ĠPy": 9270,
      "Ġminimum": 9271,
      "ĠMess": 9272,
      "star": 9273,
      "Ġ1909": 9274,
      "ymbol": 9275,
      "Ġclinical": 9276,
      "ĠYam": 9277,
      "ĠBey": 9278,
      "ĠDeb": 9279,
      "Ġstruck": 9280,
      "world": 9281,
      "Ġtool": 9282,
      "Ġhill": 9283,
      "Ġverse": 9284,
      "Ġstands": 9285,
      "ĠMuslims": 9286,
      "ĠTax": 9287,
      "ĠWoman": 9288,
      "1940": 9289,
      "ĠPhot": 9290,
      "Ġpeak": 9291,
      "Ġprisoners": 9292,
      "Ġscientists": 9293,
      "Ġregulations": 9294,
      "Ġmodified": 9295,
      "Ġsinging": 9296,
      "Inter": 9297,
      "ĠPad": 9298,
      "attan": 9299,
      "Ġperspect": 9300,
      "Ġtribe": 9301,
      "GA": 9302,
      "stery": 9303,
      "abled": 9304,
      "1962": 9305,
      "ĠTreaty": 9306,
      "fish": 9307,
      "film": 9308,
      "ĠSuch": 9309,
      "ĠJose": 9310,
      "Ġdiscussed": 9311,
      "App": 9312,
      "ĠKos": 9313,
      "aware": 9314,
      "Ġcold": 9315,
      "raham": 9316,
      "Ġperiods": 9317,
      "Spec": 9318,
      "Ġinhabitants": 9319,
      "Olymp": 9320,
      "Ġsleep": 9321,
      "ĠEss": 9322,
      "Ġsoccer": 9323,
      "ĠTak": 9324,
      "ĠPersonal": 9325,
      "otype": 9326,
      "Ġvision": 9327,
      "ĠWebsite": 9328,
      "Flor": 9329,
      "Ġemerged": 9330,
      "oj": 9331,
      "Ġrhy": 9332,
      "Ġveter": 9333,
      "Ġassembly": 9334,
      "Ġmonument": 9335,
      "Ġguitarist": 9336,
      "ĠPersian": 9337,
      "where": 9338,
      "ĠMap": 9339,
      "Ġemergency": 9340,
      "ÏĤ": 9341,
      "ictionary": 9342,
      "Ġhosts": 9343,
      "Ġdisappear": 9344,
      "Ġanalog": 9345,
      "ĠAlice": 9346,
      "cat": 9347,
      "ĠPay": 9348,
      "Ġcritics": 9349,
      "Ġsatisf": 9350,
      "inction": 9351,
      "ĠVideo": 9352,
      "Ġcelebrated": 9353,
      "Ġdry": 9354,
      "ĠPortland": 9355,
      "Ġflying": 9356,
      "ials": 9357,
      "Ġsegment": 9358,
      "Bar": 9359,
      "Ġ1905": 9360,
      "Ġneut": 9361,
      "Ġ65": 9362,
      "Ġcharacterized": 9363,
      "Ġlooking": 9364,
      "Ġfan": 9365,
      "Ġalgorith": 9366,
      "Ġrout": 9367,
      "Ġgreatest": 9368,
      "Ġvictims": 9369,
      "Ġcorner": 9370,
      "Ġsomeone": 9371,
      "Ġphotography": 9372,
      "ĠBirmingham": 9373,
      "Ġsomewhat": 9374,
      "ĠCow": 9375,
      "ĠCass": 9376,
      "ete": 9377,
      "ĠCou": 9378,
      "ĠLl": 9379,
      "Ġindex": 9380,
      "Jew": 9381,
      "ĠGor": 9382,
      "Ġtruth": 9383,
      "hus": 9384,
      "Ġnav": 9385,
      "ĠColonel": 9386,
      "ĠTig": 9387,
      "ĠMes": 9388,
      "ulus": 9389,
      "Ġcongress": 9390,
      "Ġben": 9391,
      "ĠSyn": 9392,
      "Ġsimpl": 9393,
[...]
